00000000
00100000
00000000
00000000
00000000
00000000
00000000
00010000
00000000
00000000
00010000
00000000
00000000
00000000
00000000
00000000
00010000
00000000
00110000
00000000
00110000
00110000
00000000
00000000
00000000
00000000
00000000
00100000
00000000
00000000
00100000
00010000
00110000
01000000
00000000
00000000
00000000
00000000
00000000
00110000
01000000
00010000
00000000
00010000
00010000
00000000
00010000
00000000
00000000
00000000
00000000
00000000
00010000
00000000
00000000
00000000
00000000
00100000
00100000
00010000
00000000
00000000
00000000
00001111
00000000
11110000
00000000
00000000
00000000
00000000
00000000
11110000
00000000
00000000
11110000
00000000
00000000
00000000
00000000
00000000
00000000
00010000
11110000
00000000
11110000
11110000
00010000
00000000
00110000
00000000
00100000
11110000
00000000
01000000
11110000
00000000
11110000
11100000
00000000
00000000
00000000
00000000
00000000
11110000
11100000
00000000
00000000
00000000
00000000
00000000
00010000
00000000
00000000
00110000
00000000
00000000
00000000
00000000
00000000
00000000
00000000
11110000
11110000
00000000
00100000
00000000
00100000
00000100
