00000000
00000000
00000000
00000000
00000000
00000000
00000000
00000000
00000000
00000000
00000000
00000000
00000000
00000000
00000000
00000000
00000000
00000000
00000000
00000000
00000000
00000000
00000000
00000000
00000000
00000000
00000000
00000000
00000000
00000000
00000000
00000000
00000000
11110000
00100000
00010000
00010000
00000000
11110000
00010000
00000000
00000000
00000000
11110000
11110000
00010000
00000000
00010000
00010000
11110000
00000000
00000000
00000000
00000000
00000000
11110000
00010000
00100000
00000000
00000000
00010000
00010000
00010000
11110000
00000000
00000000
00000000
00000000
00000000
00000000
00000000
00000000
00000000
00000000
00000000
00000000
00000000
00000000
00000000
00000000
00000000
00000000
00000000
00000000
00000000
00000000
00000000
00000000
00000000
00000000
00000000
00000000
00000000
00000000
00000000
00000000
00000000
00000000
00000000
00000000
00000000
00000000
00000000
00000000
00000000
00000000
00000000
00000000
00000000
00000000
00000000
00000000
00000000
00000000
00000000
00000000
00000000
00000000
00000000
00000000
00000000
00000000
00000000
00000000
00000000
00000000
00000000
00000000
00000000
00000000
00000000
00000000
00000000
00000000
00000000
00000000
00000000
00000000
00000000
00000000
00000000
00000000
00000000
00000000
00000000
00000000
00000000
00000000
00000000
00000000
00000000
00000000
00000000
00000000
00000000
00000000
00000000
00000000
00000000
00000000
00000000
00000000
00000000
00000000
00000000
00000000
00000000
00000000
00000000
00000000
00000000
00000000
00000000
00000000
00000000
00000000
00000000
00000000
00000000
00000000
00000000
00000000
00000000
00000000
00000000
00000000
00000000
00000000
00000000
00000000
00000000
00000000
00000000
00000000
00000000
00000000
00000000
00000000
00000000
00000000
00000000
00000000
00000000
00000000
00000000
00000000
00000000
00000000
00000000
00000000
00000000
00000000
00000000
00000000
00000000
00000000
00000000
00000000
00000000
00000000
00000000
00000000
00000000
00000000
00000000
11110000
00010000
00010000
00000000
00000000
11110000
00000000
00010000
00000000
00000000
11110000
00000000
00010000
00000000
00000000
00010000
11110000
00000000
00000000
00000000
00000000
00000000
00000000
00000000
00010000
00000000
00000000
00000000
00010000
00010000
11110000
00000000
00000000
00000000
00000000
00000000
00000000
00000000
00000000
00000000
00000000
00000000
00000000
00000000
00000000
00000000
00000000
00000000
00000000
00000000
00000000
00000000
00000000
00000000
00000000
00000000
00000000
00000000
00000000
00000000
00000000
00000000
00000000
00000000
00000000
00000000
00000000
00000000
00000000
00000000
00000000
00000000
00000000
00000000
00000000
00000000
00000000
00000000
00000000
00000000
00000000
00000000
00000000
00000000
00000000
00000000
00000000
00000000
00000000
00000000
00000000
00000000
00000000
00000000
00000000
00000000
11110000
00100000
00010000
00010000
00000000
11110000
00000000
00010000
00000000
00000000
11110000
00000000
00010000
00000000
00000000
00010000
11110000
00000000
00000000
00000000
00000000
00000000
00000000
00000000
00010000
00000000
00000000
00000000
00010000
00010000
11110000
00000000
00000000
00000000
00000000
00000000
00000000
00000000
00000000
00000000
00000000
00000000
00000000
00000000
00000000
00000000
00000000
00000000
00000000
00000000
00000000
00000000
00000000
00000000
00000000
00000000
00000000
00000000
00000000
00000000
00000000
00000000
00000000
00000000
00000000
00000000
00000000
00000000
00000000
00000000
00000000
00000000
00000000
00000000
00000000
00000000
00000000
00000000
00000000
00000000
00000000
00000000
00000000
00000000
00000000
00000000
00000000
00000000
00000000
00000000
00000000
00000000
00000000
00000000
00000000
00000000
00000000
00000000
00000000
00000000
00000000
00000000
00000000
00000000
00000000
00000000
00000000
00000000
00000000
00000000
00000000
00000000
00000000
00000000
00000000
00000000
00000000
00000000
00000000
00000000
00000000
00000000
00000000
00000000
00000000
00000000
00000000
00000000
00000000
00000000
00000000
00000000
00000000
00000000
00000000
00000000
00000000
00000000
00000000
00000000
00000000
00000000
00000000
00000000
00000000
00000000
00000000
00000000
00000000
00000000
00000000
00000000
00000000
00000000
00000000
00000000
00000000
00000000
00000000
00000000
00000000
00000000
00000000
00000000
00000000
00000000
00000000
00000000
00000000
00000000
00000000
00000000
00000000
00000000
00000000
00000000
00000000
00000000
00000000
00000000
00000000
00000000
00000000
00000000
00000000
00000000
00000000
00000000
00000000
00000000
00000000
00000000
00000000
00010000
00010000
00000000
00000000
11110000
00000000
00000000
00000000
00000000
00000000
00000000
00000000
00000000
00000000
00000000
00000000
00000000
00000000
00000000
00000000
00000000
00000000
00000000
00010000
00000000
00000000
00000000
00000000
00000000
11110000
00000000
00000000
00000000
00000000
00000000
00000000
00010000
00000000
00000000
00000000
00000000
00000000
00000000
00000000
00000000
00000000
00000000
00000000
00000000
00000000
00000000
00000000
00000000
00000000
00000000
00000000
00000000
00000000
00000000
00000000
00000000
00000000
11110000
11100000
00110000
00110000
00010000
00010000
11100000
00010000
00010000
11110000
00010000
11110000
11110000
00010000
00010000
00010000
00010000
11110000
00000000
00000000
00010000
00000000
11110000
11110000
00010000
00110000
00000000
00000000
00010000
00010000
00100000
11100000
00000000
00000000
00000000
00000000
00000000
00000000
00000000
00000000
00000000
00000000
00000000
00000000
00000000
00000000
00000000
00000000
00000000
00000000
00000000
00000000
00000000
00000000
00000000
00000000
00000000
00000000
00000000
00000000
00000000
00000000
00000000
00000000
11110000
11100000
00110000
00110000
00010000
00010000
11100000
00010000
00010000
11110000
00010000
11110000
11110000
00010000
00010000
00010000
00010000
11110000
00000000
00000000
00010000
00010000
11110000
11110000
00010000
00110000
00000000
00000000
00010000
00010000
00100000
11100000
11110000
11110000
00110000
00100000
00010000
00010000
11100000
00010000
00010000
11110000
00010000
11110000
11110000
00010000
00010000
00010000
00010000
11110000
00000000
00000000
00010000
00000000
11110000
11110000
00010000
00100000
00000000
00000000
00010000
00010000
00010000
11110000
00000000
00010000
00000000
00000000
00000000
00000000
00010000
00000000
00000000
00000000
00000000
00000000
00000000
00000000
00000000
00000000
00000000
00000000
00000000
00000000
00000000
00000000
00010000
00010000
00000000
00000000
00000000
00000000
00000000
00000000
00000000
00000000
00000000
00000000
00000000
00000000
00000000
00000000
00000000
00000000
00000000
00000000
00000000
00000000
00000000
00000000
00000000
00000000
00000000
00000000
00000000
00000000
00000000
00000000
00000000
00000000
00000000
00000000
00000000
00000000
00000000
00000000
00000000
00000000
00010000
00100000
11110000
00000000
00000000
00000000
00110000
00000000
00000000
00100000
00000000
00100000
00010000
00000000
00010000
00000000
00010000
00100000
00000000
00010000
00000000
00000000
00100000
00100000
00000000
00000000
00000000
00000000
00000000
00000000
00000000
00100001
00000000
00000000
00000000
00000000
00000000
00000000
00000000
00000000
00000000
00000000
00000000
00000000
00000000
00000000
00000000
00000000
00000000
00000000
00000000
00000000
00000000
00000000
00000000
00000000
00000000
00000000
00000000
00000000
00000000
00000000
00000000
00000000
00010000
00100000
11110000
00000000
00000000
00000000
00100000
00000000
00000000
00010000
00000000
00010000
00010000
00000000
00010000
00000000
00000000
00010000
00000000
00010000
00000000
00000000
00010000
00010000
00000000
00000000
00000000
00000000
00000000
00000000
00000000
00100001
00000000
11110000
00100000
00010000
00010000
00000000
11110000
00000000
00010000
00000000
00000000
11110000
11110000
00000000
00000000
00000000
00000000
11110000
00000000
00000000
00010000
00000000
00000000
11110000
00010000
00100000
00000000
00000000
00000000
00010000
00010000
11110000
00000000
00000000
00000000
00000000
00000000
00000000
00000000
00000000
00000000
00000000
00000000
00000000
00000000
00000000
00000000
00000000
00000000
00000000
00000000
00000000
00000000
00000000
00000000
00000000
00000000
00000000
00000000
00000000
00000000
00000000
00000000
00000000
00100000
00110000
11110000
11110000
00000000
00000000
01000000
00000000
00000000
00100000
00000000
00100000
00100000
00000000
00010000
00000000
00010000
00110000
00000000
00010000
00000000
00000000
00110000
00100000
00000000
11110000
00000000
00000000
00000000
00000000
00000000
00110001
00000000
11110000
00110000
00100000
00010000
00010000
11100000
00010000
00010000
11110000
00010000
11110000
11110000
00010000
00010000
00010000
00010000
11110000
00000000
00000000
00010000
00000000
11110000
11110000
00010000
00100000
00000000
00000000
00010000
00010000
00010000
11110000
00000000
00000000
00010000
00010000
00000000
00000000
00000000
00000000
00000000
00000000
00000000
00000000
00000000
00000000
00000000
00000000
00000000
00000000
00000000
00000000
00000000
00000000
00000000
00000000
00000000
00010000
00000000
00000000
00000000
00000000
00000000
00000000
11110000
11100000
00110000
00110000
00010000
00010000
11100000
00010000
00010000
11110000
00010000
11110000
11110000
00010000
00010000
00010000
00010000
11110000
00000000
00000000
00010000
00010000
11110000
11110000
00010000
00110000
00000000
00000000
00010000
00100000
00100000
11100000
11110000
11100000
01010000
01000000
00100000
00010000
11010000
00010000
00100000
11110000
00010000
11100000
11100000
00010000
00010000
00010000
00100000
11100000
00000000
11110000
00010000
00010000
11110000
11110000
00100000
01000000
00000000
00000000
00010000
00100000
00100000
11100000
00000000
00000000
00000000
00000000
00000000
00000000
00000000
00000000
00000000
00000000
00000000
00000000
00000000
00000000
00000000
00000000
00000000
00000000
00000000
00000000
00000000
00000000
00000000
00000000
00000000
00000000
00000000
00000000
00000000
00000000
00000000
00000000
00000000
00000000
00000000
00000000
00000000
00000000
00000000
00000000
00000000
00000000
00000000
00000000
00000000
00000000
00000000
00000000
00000000
00000000
00000000
00000000
00000000
00000000
00000000
00000000
00000000
00000000
00000000
00000000
00000000
00000000
00000000
00000000
00000000
00000000
00000000
00000000
00000000
00000000
00000000
00000000
00000000
00000000
00000000
00000000
00000000
00000000
00000000
00000000
00000000
00000000
00000000
00000000
00000000
00000000
00000000
00000000
00000000
00000000
00000000
00000000
00000000
00000000
00000000
00000000
00000000
00000000
00000000
00000000
00000000
00000000
00000000
00000000
00000000
00000000
00000000
00000000
00000000
00000000
00000000
00000000
00000000
00000000
00000000
00000000
00000000
00000000
00000000
00000000
00000000
00000000
00000000
00000000
00000000
00000000
00000000
00000000
00000000
00000000
00000000
00000000
00000000
00000000
00000000
00000000
00000000
00000000
00000000
00000000
00000000
00000000
00000000
00000000
00000000
00000000
00000000
00000000
00000000
00000000
00000000
00000000
00000000
00000000
00000000
00000000
00000000
00000000
00000000
00000000
11110000
11110000
00110000
00100000
00010000
00010000
11100000
00010000
00010000
11110000
00010000
11110000
11110000
00010000
00010000
00010000
00010000
11110000
00000000
00000000
00010000
00010000
11110000
11110000
00010000
00110000
00000000
00000000
00010000
00010000
00010000
11100000
11110000
11100000
01000000
01000000
00010000
00010000
11010000
00010000
00100000
11110000
00010000
11100000
11110000
00010000
00010000
00010000
00010000
11100000
00000000
11110000
00010000
00010000
11110000
11110000
00010000
01000000
00000000
00000000
00010000
00100000
00100000
11100000
00000000
11110000
00010000
00010000
00000000
00000000
11110000
00010000
00000000
00000000
00000000
11110000
00000000
00000000
00000000
00000000
00010000
00000000
00000000
00000000
00000000
00000000
00000000
00000000
00010000
00010000
00000000
00000000
00000000
00010000
00010000
11110000
00000000
00000000
00000000
00000000
00000000
00000000
00000000
00000000
00000000
00000000
00000000
00000000
00000000
00000000
00000000
00000000
00000000
00000000
00000000
00000000
00000000
00000000
00000000
00000000
00000000
00000000
00000000
00000000
00000000
00000000
00000000
00000000
00000000
00000000
00010000
00010000
00000000
00000000
00000000
00000000
00000000
00000000
00000000
00000000
00000000
00000000
00000000
00000000
00000000
00000000
00000000
00000000
00000000
00000000
00000000
00000000
00000000
00010000
00000000
00000000
00000000
00000000
00000000
11110000
00000000
11110000
00010000
00010000
00000000
00000000
11110000
00000000
00000000
00000000
00000000
11110000
00000000
00000000
00000000
00000000
00000000
00000000
00000000
00000000
00000000
00000000
00000000
00000000
00000000
00010000
00000000
00000000
00000000
00000000
00010000
11110000
00000000
00000000
00000000
00000000
00000000
00000000
00000000
00000000
00000000
00000000
00000000
00000000
00000000
00000000
00000000
00000000
00000000
00000000
00000000
00000000
00000000
00000000
00000000
00000000
00000000
00000000
00000000
00000000
00000000
00000000
00000000
00000000
00000000
00010000
00000000
00000000
00000000
00000000
00010000
00000000
00000000
00000000
00000000
00000000
00010000
00000000
00000000
00000000
00010000
00010000
00000000
00000000
00000000
00000000
00010000
00010000
00000000
00000000
00000000
00000000
00000000
00000000
00000000
00000000
00000000
00000000
00000000
00000000
00000000
00000000
00000000
00000000
00000000
00000000
00000000
00000000
00000000
00000000
00000000
00000000
00000000
00000000
00000000
00000000
00000000
00000000
00000000
00000000
00000000
00000000
00000000
00000000
00000000
00000000
00000000
00000000
00000000
00000000
00000000
00000000
00000000
00000000
00000000
00000000
00000000
00000000
00000000
00000000
00000000
00000000
00000000
00000000
00000000
00000000
00000000
00000000
00000000
00000000
00000000
00000000
00000000
00000000
00000000
00000000
00000000
00000000
00000000
00000000
00010000
00100000
11110000
00000000
00000000
00000000
00100000
00000000
00000000
00010000
00000000
00010000
00010000
00000000
00010000
00000000
00000000
00100000
00000000
00010000
00000000
00000000
00100000
00010000
00000000
00000000
00000000
00000000
00000000
00000000
00000000
00100001
00000000
00000000
00000000
00000000
00000000
00000000
00000000
00000000
00000000
00000000
00000000
00000000
00000000
00000000
00000000
00000000
00000000
00000000
00000000
00000000
00000000
00000000
00000000
00000000
00000000
00000000
00000000
00000000
00000000
00000000
00000000
00000000
00000000
00000000
00000000
00000000
00000000
00000000
00000000
00000000
00000000
00000000
00000000
00000000
00000000
00000000
00000000
00000000
00000000
00000000
00000000
00000000
00000000
00000000
00000000
00000000
00000000
00000000
00000000
00000000
00000000
00000000
00000000
00000000
00000000
11110000
00010000
00010000
00000000
00000000
11110000
00000000
00000000
00000000
00000000
11110000
00000000
00000000
00000000
00000000
00000000
00000000
00000000
00000000
00000000
00000000
00000000
00000000
00000000
00010000
00000000
00000000
00000000
00010000
00010000
11110000
00000000
00000000
00000000
00000000
00000000
00000000
00000000
00000000
00000000
00000000
00000000
00000000
00000000
00000000
00000000
00000000
00000000
00000000
00000000
00000000
00000000
00000000
00000000
00000000
00000000
00000000
00000000
00000000
00000000
00000000
00000000
00000000
00000000
00000000
00000000
00000000
00000000
00000000
00000000
00000000
00000000
00000000
00000000
00000000
00000000
00000000
00000000
00000000
00000000
00000000
00000000
00000000
00000000
00000000
00000000
00000000
00000000
00000000
00000000
00000000
00000000
00000000
00000000
00000000
00000000
00000000
00000000
00000000
00000000
00000000
00000000
00000000
00000000
00000000
00000000
00000000
00000000
00000000
00000000
00000000
00000000
00000000
00000000
00000000
00000000
00000000
00000000
00000000
00000000
00000000
00000000
00000000
00000000
00000000
00000000
00000000
00000000
00000000
00000000
00000000
00000000
00000000
00000000
00000000
00000000
00000000
00000000
00000000
00000000
00000000
00000000
00000000
00000000
00000000
00000000
00000000
00000000
00000000
00000000
00000000
00000000
00000000
00000000
00000000
00000000
00000000
00000000
00000000
00000000
11110000
00100000
00010000
00010000
00000000
11110000
00000000
00010000
00000000
00000000
11110000
11110000
00010000
00000000
00010000
00010000
11110000
00000000
00000000
00010000
00000000
11110000
00000000
00000000
00100000
00000000
00000000
00010000
00010000
00010000
11110000
00000000
11110000
00100000
00010000
00010000
00000000
11110000
00000000
00010000
00000000
00000000
11110000
11110000
00000000
00010000
00000000
00010000
11110000
00000000
00000000
00000000
00000000
11110000
00000000
00010000
00010000
00000000
00000000
00010000
00010000
00010000
11110000
00000000
00000000
00010000
00010000
00000000
00000000
00000000
00000000
00000000
00000000
00000000
00000000
00000000
00000000
00000000
00000000
00000000
00000000
00000000
00000000
00000000
00000000
00000000
00000000
00000000
00010000
00000000
00000000
00000000
00000000
00000000
00000000
00010000
00010000
00000000
00000000
00000000
00000000
00010000
00000000
00000000
00010000
00000000
00010000
00010000
00000000
00000000
00000000
00000000
00010000
00000000
00010000
00000000
00000000
00010000
00010000
00000000
00000000
00000000
00000000
00000000
00000000
00000000
00010001
00000000
00000000
00000000
00000000
00000000
00000000
00000000
00000000
00000000
00000000
00000000
00000000
00000000
00000000
00000000
00000000
00000000
00000000
00000000
00000000
00000000
00000000
00000000
00000000
00000000
00000000
00000000
00000000
00000000
00000000
00000000
00000000
00010000
00100000
11110000
00000000
00000000
00000000
00100000
00000000
00000000
00010000
00000000
00010000
00010000
00000000
00010000
00000000
00010000
00100000
00000000
00010000
00000000
00000000
00100000
00010000
00000000
00000000
00000000
00000000
00000000
00000000
00000000
00100001
00000000
00000000
00000000
00000000
00000000
00000000
00000000
00000000
00000000
00000000
00000000
00000000
00000000
00000000
00000000
00000000
00000000
00000000
00000000
00000000
00000000
00000000
00000000
00000000
00000000
00000000
00000000
00000000
00000000
00000000
00000000
00000000
