000010000000100000001000000010000000100000001000000010000000100000001000
000100000001000000010000000100000001000000010000000100000001000000010000
000010000000100000001000000010000000100000001000000010000000100000001000
000010000000100000001000000010000000100000001000000010000000100000001000
000010000000100000001000000010000000100000001000000010000000100000001000
000010000000100000001000000010000000100000001000000010000000100000001000
000010000000100000001000000010000000100000001000000010000000100000001000
000010000000100000001000000010000000100000001000000010000000100000001000
000010000000100000001000000010000000100000001000000010000000100000001000
000010000000100000001000000010000000100000001000000010000000100000001000
000010000000100000001000000010000000100000001000000010000000100000001000
000010000000100000001000000010000000100000001000000010000000100000001000
000010000000100000001000000010000000100000001000000010000000100000001000
000010000000100000001000000010000000100000001000000010000000100000001000
000010000000100000001000000010000000100000001000000010000000100000001000
000010000000100000001000000010000000100000001000000010000000100000001000
000010000000100000001000000010000000100000001000000010000000100000001000
000010000000100000001000000010000000100000001000000010000000100000001000
000100000001000000010000000100000001000000010000000100000001000000010000
000010000000100000001000000010000000100000001000000010000000100000001000
000010000000100000001000000010000000100000001000000010000000100000001000
000010000000100000001000000010000000100000001000000010000000100000001000
000010000000100000001000000010000000100000001000000010000000100000001000
000010000000100000001000000010000000100000001000000010000000100000001000
000010000000100000001000000010000000100000001000000010000000100000001000
000010000000100000001000000010000000100000001000000010000000100000001000
000010000000100000001000000010000000100000001000000010000000100000001000
000010000000100000001000000010000000100000001000000010000000100000001000
000010000000100000001000000010000000100000001000000010000000100000001000
000010000000100000001000000010000000100000001000000010000000100000001000
000010000000100000001000000010000000100000001000000010000000100000001000
000010000000100000001000000010000000100000001000000010000000100000001000
