000000010001000111110001000000000001
111111101110111111001111111111101111
000011110000000011110001000100000001
111111110001111100010001111100100011
111111011111111011011111000011101111
000000010000000100000001000011110001
111100000000111100000000000100000001
000000000001000100000000000011110001
111011100000111111110001000000010001
111000100010000001000011001000100000
000100010001000100011111000000000000
000000000000000100011111001000000000
000100100001000000011111000000010001
001000010001001000010010001100101111
000100100001001000010000000000000000
000100000000000000000000000000000001
000111111111000000000001000011111111
000000000000111100001110000000010001
000100010000000100010000000011110001
000100000001000000000000111100000000
000011110000111100000000000000011111
000011110001000111100001000100000010
000000000001000011110000000100000000
000100000001000011110001000011110001
000000010010111111111111000100010000
000011110000000111110001000011100000
000000011111111100011111000000000000
111111110000111100000000111100010000
000000000000000100100001000000010001
111100001111111100001111000011111111
000011111111000000011111000100010000
000000001111000111110000000000000000
111100010000000100000000000011111111
000100000000000011110001000111110001
000000000001000000000000000111110001
111011110000111100000001000011110000
000111100000000011110000111100010001
000000010000000000000001000000100001
000000001111000000000000111100001111
000000000000000000010001000100000000
000011101111000011110000000000000001
111100000000000000100001000100100001
000111110000000100010000111111111111
000111111111000011110000000000010001
111011111111000000001110111011101111
000100010010111100010001000100010001
000111110000000111111111111100000000
000100000000000000001111000000000000
111100000001111100010000000000000001
111100000000111111110000000100011111
000000001111000100010000000000001111
000111110000000011111111000000001111
000011110000000000010001000000001111
111100000000000100000001111100010000
000100000000111111110000111100011111
000111110000000111111111111111110001
111111110001111100010001000100011111
111111111111000100010000000000000000
000011110000000000000000000011111111
000000010001000100010001000100010000
000100010001111100000000000011111111
000011110001000000011111001000100010
000111110000000000000000111100000000
111100000001000100000000000100001111
111100010000000011110000111111111111
001011111100000100001110000100000000
111100000001000000010001111111111111
111111111111111011111111111111110000
000100001111000011111111000000010000
111100001111111011100001000000010001
000000000001000000011111000011111111
111111111111111111111111000011110000
111111101111000011111110000111110000
111011110001110100000000000000010000
000100010000000000011111111100010001
000000010001000000001111000100100000
001000100010000100010001000011110000
000100100001000100100001000100010000
000000001111000100010000001000110001
000100100001000000011111000000010010
111100000000000000000000000100001111
000011110001111111100000111111110001
000000000001111100000001000011111111
010000110001000100010001111111101110
111011100000000011110000000000000000
000011110001000111100000000111111111
000000000000111111110000000011110001
000111110001000011110001111111111110
000000110010110111101110111100000000
001111111111000011111110000000001111
000000010000000000010001000000100001
000011110001000000000001000000000000
000100110011001000010001000100010000
000100011111000100001111001100110001
000011110000000100000001111100000010
111100000001111100010000000000000001
111100010000111100000001000011110000
000111111101111100010000110100010011
000011110001000100000000000011110001
111011010000111111101110000100001110
001011111110000000100010111000010001
000000001111000000010000000000000001
111100010000000000010000000100010000
000000000000000000001111000100011111
111111101110111111111111000000010000
111111110001111100010001000000001110
001000011111000100100001111100010010
000000000001001000100001000011111111
111111110001111100001111111011110000
000100100000000100100011000100100001
001000100000001100100001000100100010
000100100000000100100001000000000000
000011110001000000001111000111110000
000011100001000000000001001011111111
000000000001000000000000111100000000
000000000001111100000000111011111111
000011101111001000000000000000000000
111100010001000000010001000000001111
000011110001000100010000111100010000
111100000000000100000000000011111111
111011110000111111101110111111111111
000100010000001000110001111100011111
000000000000000111101111001000000001
111100010000000011111111111111110000
000000010001000011110001111011101111
000000001111111111111111000000010000
111100001111000011110000111111101111
111100010000111111110000111100000000
111111110001000000010000000000000001
000100100001000011110001000111101110
000000010000000000010001000011110001
000100011111000100100001000011111111
000100010001000111110000111100001111
000000010001000100000000000011111111
000100010000000111111111000100011111
000000011111000000000000000000010000
001000010000000100011111111111111110
000100001111000111110000111011111110
000100000001000000000000000011111111
000000000001000000000000111100001111
000000000000111111111111000111111111
000011110000000111110000000000001111
111100000000111100001111111111110001
111111110001000100000001000011111111
111100000000000011110001000100010001
111100100010111000010011110111110011
000000000000111100000000000100001111
111111101111000011110000111100010000
111000010010111100000001111111110001
111100001111000111111111111100011110
000000000001000111110001000000000000
111100011111000000010000000000001111
111011111110000011111111111000000001
000011101111000011100000000000001110
000100000000111111110001000000010001
111111110000000000001111000111110000
000000010000000100100010111100010000
111111101111000011110000111000000001
000000000001000000010000111100000000
111100010000111111110000000000000000
000011110000000011110001111100000000
000000000010111100010010000011110000
000100001111000000010000111111110001
000000001111000100100000111100010000
111100000000111100010000000011110000
000000000001000111111111111011111111
000100010000000000010001000111110000
000000000000000100010001111111110001
111100100000000100110010111111111111
000000100000000000001111111111111111
111100000000000100000000000011110000
000000010000111100010000000000010000
000100000001000100010001000100010001
000100011111111100010000000011110000
000000000000111100010000000100010000
000000001111111100001111000000000001
000000010001111100010000000100010000
111001000000111101010000111100110000
000000000000111100010000000011111111
000111110000000111111110111100001110
000000110000000100010001111100101110
000100011111000100001110111111111110
111111111111000011110000111111110000
000100000000000000011111000000010000
000000011111001000011110000111111101
000111111111111111011110000011011111
111100011111000000000000111100001111
000000001111111100000000000000001111
000000001111000000000000000111110000
000011110000000011110000000000000000
000100010001111100000000000000011110
111100011111111111110000000100010000
000100001111111100001111111111110001
111100000001000011111110000100001111
000000010000111100000000000000011111
000100010011000000000001000000010010
000011110000000000010000000011111110
000000010000000011110010111000010010
111100000001000111110001000100000001
000000010001111100010000111100000010
000000010010000000000000000000010010
111100000001111000010001111000010100
000011101110000000010000111100001111
000100000000000000010000000100001111
111111101111111111111110000100001111
111111110000111111100000111111110010
000011110000111100011111111100010001
111100000000111111110000111100000001
000000000000111100010001000111110000
111111110000000000000000000111110000
000000010001111100010001000111110001
000000011111000011110000000000001111
000000000001111100000000111111110000
000000000000000100001111000000010001
000011110001000011111111000000000001
000011111111000100001111000000010001
111111111111000011110001000011111111
000011110000111100001111000000000000
111100000001000000011111111100011111
000100010001111100011111000111111111
000011111111000111110000000100010000
000100000001000100001111000000000000
000000000001000000011111000000000000
000100010001000100000001000100000000
000000000001000011110001000100010001
111100010001111011110001000011111110
000011110000000111111111000111111111
000100010000111100000000111111110001
000000010000111111110001111111111111
000100010000111111111110111111111110
000100000000000011110000111100000000
000000010000000011111111000100011111
000100000010000000000001000011111110
000000000001000000001111111111111110
000000000000000100010001000011111111
000011110001000100001111000100010001
000000010010000000110001111111110000
000000010001000000000000111100010001
000011111111000011110000111100001111
000000000000111100001111000111110001
000100000000000000000000000000010000
111000011110111100101111000100111111
000111110000000100010000111111110000
000100100010111100010001000011111110
000100001111000000010000111100011111
000000000000000000010000111000000000
000111110001000000010000000011111111
111100010001000100000001000000001111
000100010010001000001111000111101111
000100010010111111100010111011010001
000000010000000000010001000100010001
000000001111000100000000000000011111
111111110000000111110000000100001111
000011110000000100001111111100010001
000100000000001000010000000100010000
111100000000000000010001000000000000
