000100000001000000010000000100010000
111100000000000011110000000000000000
000000010000000000001111000000000000
000011111111000000000000111100011111
000100000001000100000000000011110000
111100010000000011110000000000000000
000000000000000011110000000000010001
000000000001000000010000000000010001
000000010001111100010000111100000000
000000001111000011110000111111110001
111111110000111111110000000000000001
000000000000000000010000000011111111
000000000000000000001111111111110000
000000000000000000000001000000001111
000000000000000000001111000011110000
000100001111000100000000000100010001
111100000000000100001111000011110000
000100000000000111110000000000010000
000100010000000000010001000000010000
000000000000000100000000000000010000
000000000000111100000000111111111111
000000000000000100000000000011110001
000000001111111100001111000011110001
000111110000000111110000000000000000
000100010000000000000000000000001111
000000000000000000001111000011110000
000000000000000000011111000000000000
000100000000000000000000000100000000
000000010000000100000000000100000000
111111111111111111110000000111110000
000000000000111111110000111100000000
000011110001000011110000000100000000
000000000000000000010000000000000001
000011110000000000010001111011111111
000000000000111111110000000000010000
000011110001000011101111111111111111
111100000000111111110000000000000000
000000011111000100010001111100000000
000011110000111100011111000100100010
000000000000001000000001000111110001
001000000000000100000001000100001111
000011111111111111111111000100000000
000100010000111100000000001000011111
000000000001000100001111000000010000
111111110001111100010001111100001111
000000000000111100000001111111110000
000100011111000011110001000011111111
000100001111111111111110000111110000
111100001111000000010000111111101111
000000001111000100010000000011110000
000011101111000011100001000100000000
111111111110000000000000000100000000
001100010000001000010001000011110000
000000000001000111111111000000011111
111100000000111100000000000000001111
000000000001000011110010111111110001
000000010000111111110000000000011111
111100010000000011111111000100000000
000000000000000100010000000000000000
000000001111111100000000000000000000
111111111111111100000001000100010001
111100000010111100011110111100000000
111100010000111111111111000011110000
111100010000000000010010111111110000
000011110000000011110000111100001111
000111111111000011111111111111100001
000100001111000000000000000011110000
000000001111000000010001000000010000
111100000001000100010001000100010010
000011111111000100010010000100010010
111100010001000100000000000000000001
111111111111001100010001001000000000
111111111111000011100000111111111110
111111111110000100010010000011111111
111011011110000100010001000011111111
000000000000000000010000000000001111
111011100000111100000000000011110000
111011011110000111110001000011110000
000100011111000011111111000111111111
111100010001000100100001001000001111
000000000000000100010010111100000001
000011101110111111110000111111110001
111111101111000100010010000100000001
111011011110001000010000000100000001
111100001111111111111111000100000000
000000010000000000001111000000000000
111111100000000100010000000100010001
000011110000000011110000000011110000
111011101101000111110000000000001111
000011110000000000010001000000000000
111111111111000100100010000100010000
000011110000000000010001000000000001
111100000000000000000000000000000001
111011011101001000000001000100010001
111011110000000100000000111100000000
111111100000000000000000000000000001
000011110000000000001111000000001111
000100010000111111111111111100010000
000011110000000000000000111100000000
000000001111000100100000000000100000
111100000000000000000001000000010000
111111111111000100010001111100010001
000000001111000100000000111111110001
111111111111000111110000000011110000
111111100000000011110000000011100000
111111111111000100010000111111110000
111111111111000100010001000100000000
111100000000000000010000000100000000
111011101111000000011111000011110000
111011101111001000010010000000000000
000100000000000000001111000000000000
000100000000000100010001000100000000
111111101111000100010001000000000000
111011101111000000000000000000001111
111111100000000100000000000100000001
111111101111000000000010000100000000
111111111111111111111111000100011111
000000000000000000001111000000001111
111111111111000000001111000011110001
111100010000000100000000000011111111
111111101110000100000000000100000001
000011110000000100000001000100000000
000011110000000100010001000100100001
111100000000111100000001000011110010
111100000000000000000000000100000001
111111011110001000000010001000000010
000011111111000011110001000011110001
111111101111000111110001000011110000
000011110000000000000000000100000000
000000010000000000001111000000010001
000000000001000000010001111111110001
000000000001111111110001000000010000
111100000000000000000000111111111111
000100001111000000001111000100000000
000011111111000011110000000000000000
111100010000000000000000000011110001
000100001111000100010000000000001111
111100010000000000000000111100000000
000000000000000000000000000000011111
111111110000000000001111000000000001
111100000001111100000000111100011111
000000000000111100011111000000001111
000100010000000000000001000100000000
111100000001111100010000111100001111
000000000000111100010000111100001111
000000010001000000010000000000011111
111100000000111100001111000000010001
111100010000111100011111111100100000
000000000000111100010000000000010000
000000000000111100000000000100000000
000011111111000000001111000000000000
000000010000000100000000000100000001
000011110000000000001111000000000000
111100010001111100000000000000000000
000100010000000000000000000000000000
000111110000000011110000000011110000
000000000000000000000000000111110000
111100010001111100001111000000000001
000000001111000000010000000000011111
000000011111000000001111000000011111
000000000000111100000000000111111111
000100001111000000000000000011110000
000000010000000011111111000000000000
000000000001000100000000000100010000
000000000000000011110000111100000000
000100000000000000000000111100000000
000000000000111111111111111100001111
000000000000111100010000000100011111
000000001111000000000000000000000000
000000000001000000000000000000010000
000000001111000011111111000000000000
000000000000000000000000111100000000
000100000000111100000000000000000000
000100010000000000000000000100001111
000111110000000000000000000111110000
000000010001000011110000000000000000
000100000000111100001111111100000000
000100010000000000000000000100010000
111100001111000011110000000100000000
000011111111000000001111000011110000
000000010001000011110000000000010000
000000000000000000000000000111110000
000000000000111100000000000000010000
000011110000000011110000000000000000
000100001111000000001111000100000000
000000000000000000000000000100010001
000011110000111111110000000011111111
000000000000111100000001111100000000
000011110001111100001111000000001111
000100001111000011111111000100000000
000000000000000000000000000000001111
000000000000000000001111000000001111
000000000000000100000001111100000001
001000010000001011111111000011101110
111111110000000000000000111111110000
111100010000111000001111111100000000
000000011111000100011111000000010000
000100100000000000010001111111111111
000011111111111100001111000100000001
111111111111000000000001000100100001
000000010010000100010000111100000000
000000000000111011101111111100011111
111000010010111100000010111100000000
111100001111000000010000000000010000
111100000001000100100010000011010000
000000001111000000000001111111101111
000011110000000000010001000100001111
111100000000111111111110001000110001
111100011111001000101111000011101111
000011111111000100000000111111110001
000000001111111000001110111100011101
000011111111000000001111000000001111
000000101111111100010011111111110000
000000010000000000000000000100010000
000011111111111111110000000100000000
111100011111000111110000000011111111
000000010000000000001111111111101111
000000010000111100000000111100000001
000100000000111111111111000000000001
000000010001000000000000000011100000
000000000000000100001111000111110000
000011110000000011100000000000000011
000000000000000000010000111100001111
000000000000111111110001111111101111
000111110000000011111111000100000000
111100000001111100000000000100010000
000000000000000000001111111111110000
000100000000000000001111000000000000
111100000000111111110001000011111111
000111110000000000000001111100000000
000000000000000100001111111100001111
000011111111111111110000000011110001
000111110000000100000000000000000001
000000000000000000010001000000010001
000000010000000011111111000000000000
000000010000000000000000000000000000
000100000001000011111111000000000000
000000000000000111110000000111111111
000000000001000100000000111111111111
000000000001111100010001111100010000
000100000001000100010000000000000000
000000000001000000000001111100000000
000011110000000000000000000000000000
000000001111000000000000000000010000
000000000000000000001111000000000001
000100010000111111110000000000000001
111100000000000000000000000100010000
000011110000000100001111000100001111
000011110001000100000000000011110000
000011110000111100000000000000000000
000100010001000100010001000000000001
111111110000000000000000111111110000
111100000000111100000000111100001111
000100010001000011110001000000001111
000011110000000111110000000100000000
000100000001000000001111111100000000
000111111111000000010000000000000001
111100001111000000001111111100000000
000000010000000000000000000000000000
000011110000111111110000000000000000
000000000000000011110000000111110001
000000000000111100001111000011111111
000100000000000000000000000011110000
000000000001000000010000000000010001
000000010000000000011111000000010000
000000000001000000001111000000000000
000000000001000011110000000011110000
111100001111000100010000000100010000
000100011111000000011111000000100000
000000100000111100010000111100010000
000000000000000000010000000000010000
000011110000000000000001000000000000
000000000000111100001111000000001111
000000100000111100011111000000011111
000000000000000000011111000000000000
000000000000000000000001000000010001
000000010001000000010000000000001111
000100000001000000000000000000000000
000000000001000000000000000011110000
000000000000000000010000000100010000
111100011111111111111111000000010000
000000000000000000000000111100001111
000000000000000100000000000011110000
000100010001000100001111000100000000
000111110001000000000000000000001111
000000010000111100011111111100011111
000100010000000000010000000000000000
000000010000000000010000111100011111
000000000000000000000000000000000001
000100001111000000000000111111111111
000011110001111100010000000000000000
000011110001111111111111000000000000
111100000000111100000000000000000001
111111110000000000000000000000000000
000011111111000100000000000000000000
111111110000000000000000111100000001
000000010001111111110000000011110000
000111111111000011110000111100000000
000000000000000011110000000011110000
000000010001000000000001111100001111
000100000000000000010000111111111111
000000000000000000000000111111111111
000000010000000000010001111111110000
111100001111000000010000000000000001
111100010001000100010000111111110000
000000001111111111110000111111110000
111100010001111100000001111100010001
000000010000000000000001000000000000
000000000001000000000001000011100000
000000000001000100000001000000010000
000000010000000000001111000000000001
000000010000111100010001111100010001
000000100001000000000000000000001111
111111111111000000000000000100001111
111100000001000000010000111100000000
000000000000000000001111000000001111
111100010000000000010000000000000000
000100010001000100010000000100010001
000100001111000011110000000000010000
000011110000000111111111000000001111
000100000001000111111111000000001111
000000001111000000000000000100010000
000000000000111100000000000000000000
000000000001111100000001000000010000
111111110000000000000001000111110000
000000010000000000001111000111111111
000100000000000100010000000011110000
000000000000000000000000111100001111
000000010000000000011111000100000001
000000000000000000000000000011110000
000100010000111111110000000100000000
000000001111111100000001000011111111
000000000000000000000000000000000000
000000011111000011111111000000000000
000000000001000000010000000000000000
000000010000000000000000000000011111
000000010000000000010000000000001111
000000000001000000011111111100011111
000000001111000000000001000100000000
000000000000111100000000000000000001
000000010001000000000000000100010000
000100000000000000010001000000000000
000100000001000011110000111100000000
000100010000000000000000000000000001
000000010001111100010000000000010000
000111110000000000000000000000001111
000100000000000000010000000000000001
000000000001111100010001000000000001
000000011111000000000000000100000000
000000010000111100001111111100011111
000000001111000000010000000000001111
000100010000000000000000000100001111
111111110000000000000001000000010001
001000011111000000000000111111101111
000000000000000011110000000000000000
000000000000000011111111111100000001
000100000001000000000000000000000000
111111110001000100000000111111111111
000100011111111100011111111100100000
000100001111111111110000000111110001
000000000001000011110000000111111111
000111111111111111111111000000000000
000011110000000111110000000011111111
000000010000000000000000000100010001
000111110000000100010001111111111110
000000000000000000011111111111111111
000000000000000000000000111111110000
111100001111111100000010000100000010
000000000000000100010000111100001111
000000010000000100000000111111110001
000000000000000011110001000100000000
111100010000000000000001000000000010
000000000001000000010001000011111110
000000001111111100010001000000010000
000100000001000000000000000000010001
111100010001000000000001111111110001
000000010010000000001111000000001111
000011111111000011110000000111110000
000000010000000000000000000000000000
000100000000000000000000111100011111
111100010001111100010001000000000000
001100000000000000000000000000010000
000000000000000000001111111111110000
111111110000000111110000000011111110
000100001111000000000001000000000001
000000010000000100000000000011110000
000100000000000000001111000100000000
000000010000111100010001000000000000
000000001111000000000000111100001111
000000001111000100000000001011111111
000000011111000100001111000100000000
111111110000111100010000000000011111
111100000000000000000000111100010000
000100010000000000001111000100011111
000000010000000100001111000100011110
000000000000000011111111111100000000
000000001111000011110000000000000000
111111110001000000000001000100010000
111000000000000011110000000000001111
111100000000111011100000000000001111
000100011111000000001111000000001111
000011110000000011110001000100000001
000000010001000100001111000111111111
111100000001000000010001111100000000
111100000000111011110000000011111111
000000000000000000010000000000000001
000000000000000000000000111100000001
000011110000000000000000000000000000
000000001111111111110001000011110000
000100010000000000000000000000000000
111111111111000000000000111111110000
000100000000000100011111000011111111
000000010001000000001111000011110000
000011111111111011110000111000000010
000111111111001000010001000100000000
000111110000000100000000000000011111
000100001111000000001111000000001111
000000000001000011111111000000000000
111100000001000000000001000011110000
000000010000000000000001000100010001
111100010000000000000000000000001111
000000000001000000000001000000010001
000011110000111111110001000000000000
000100001111000000000000000011111111
111100000000000000000000000100010001
111111110000000000010000000011110000
000000000000000000000000000000010000
000100010000111100000001000000010000
000100000000111100000000000100000000
000011111111000111110000000111110000
111100000001000000000000111100010000
000000000000000000000001000000000000
000000010010000011110000000000000001
000100000001000011110000000011110000
000000001111000100001111000000000000
000011110000000000010001000100000001
000011110000000011110001111111110000
000000000000000100000001000000000001
111100000000000000000000111100000000
000011110000000000000000000011110001
111111111111111111111111000100010001
000000010001000000001111111100011111
111100010001000000000000111100000001
000000001111111100000000000000010001
000011110000111100010000111111110001
000111111111000000000001000100000000
000000000001000011110000000000000001
000100010000000000000000000000000000
000000010000000000000000111100000000
000000000000000100000000000100000000
111100000000111100000000000000010000
000000000000000111110000000011110001
000000000000111100010000000000000000
000011110000000100000001000000010000
111100000000000000000000000000000000
000000000000000000000001000000010001
000000000000000000000000111100000000
000000000000000011110000111111111111
000000000001000100001111000011111111
000000000000000000001111000000000001
000000000000000000000000000000000000
111100010000000000001111000111110000
000000000000111100001111000000000000
000000010001111100000001000000000000
000000000000111100000000111100000001
000000010001000000000001111100010001
000000000000111100000001000000000000
111100000001111111110001000000000000
111100000001000011110001000000000000
000000011111000000000000000011111111
000000001111111111110001111100000000
000000000000000000000000000000000000
111111110000111111110000000000000000
000000001111111111111111000000000000
000000000000000000000001111111110001
111100000001000000001111111100000000
000000001111000000000000000000000000
000000000001000000010001000000000001
000000010000000000001111111100010000
111100010000111100000001111100010000
000000000000000000000000000000000000
000000010000000000001111000000010000
111100001111111100000001000100010001
000000000000000000000000000100010001
000011110000111100000000000000001111
000100000000000000010000000000000000
000100001111000000000000111111110000
000000000000000000000000000000010001
000000000000111100000000000000000000
000000001111000011111111000011110000
000000000001000000000000000000010000
000111110000000000000000111100000000
000100010000000000011111000000000000
000000000000111100000000000000000000
111100000000000000000000111100000000
111100000000111100000001000000010000
000000001111000000000000000000000000
000100010001000000001111111100000000
000100010000000000000000000111110001
000100000000000000001111000000010000
111100000001111100010000000100011111
000000010001111100000000000011110000
000011110000000011111111000011110000
000000000001000000000000000000000001
111100001111000011110000000000010000
000100010000000011111111111100010000
000100000000000100001111111100000001
000000010000111111110000000000000000
000000010001111100000000000011110000
000000010000000000001111000000011111
000000000000000000000001000000010001
000000000001000100010000000000011111
000100000000000100000000000100000000
111100001111111100010000000000000001
111100000000000000000000111100010000
000000000000000000000000000100011111
000000000000000011110000111111111111
000000000001111100010001111111110001
000000001111111100000001111100011111
000000000000000000000001000000000000
000111110000000000000000000000010000
000011111111000000000000111100010000
111100011111000000010001000000000000
000000000000111100000001000000000000
000000000000000000000000000000000000
000000000000111100000000111100000001
000100000001000000000000000100000000
111111110000111100010000111100010000
000000000000000000000000111100000000
000000010000000000010000000000010000
000011110000000000000000000000010000
000000010000111100011111000000101111
000011111111000000001111000000000000
000000001111000111110000000011110001
000011111111000000010001000000000000
000000000000000000000000000100001111
000011111111000011110000000000000000
000000001111111100000001111111110000
000000000001000000000001000011110000
000111110001111100000000000011110001
000011111111111100001111111111110000
000100100000111100010000000000000001
000000000001000000000000111100000001
000000001111000000000000000000000001
000011110000000000000000000100011111
000111111111000011110000111000000001
000011110000000011110000000011111111
000100010000000000001110000011111111
000000000000000000000001111100000000
000100000000000100000000000000001111
000011111111001000011111000000000000
111100010000000100100001000100000000
111100010001111000000000111100001111
001000101111000100001110000100011110
000000010000000000011111000100001111
000000000000000011110001000011110001
111111110010111111100000111111111111
000000000001000000010000000100010001
111100000000111100010001000100011111
001000100010111100010000000000100000
001000001111000111110000111111110000
111111100000000000010000000100010000
000100111111000100011111000011111111
111111110000000100010001111100000001
000000010000111000001111000011110000
000000000000000000000001000000000000
000000000001000100000001111100000000
000011111111000000000001000100010001
000000001111000000010001111111110000
000011110000000000001111000100010000
111111101111111111100000000000000000
000100001111000100001111111111101111
000000001111000000000000000100000000
000011111111111111110001000000010011
111100001111000100010000000100000000
111111111111111100000000000000010000
111100000000000100000000000000000000
000000000000111111110001000000010001
000111110000000111110001111100000000
000000000000000011110000000011110000
000000000000000000000000000100001111
000000000000000000000000000011110000
000000000000000000010000000000000000
000000000000000100010000000000000000
111100001111000000000000000000000000
000100010000000011111111000000001111
000011110000111100010000000000000000
000000010000111100010000000000001111
000000000000000000010000111111111111
000000000000000011110000111100001111
000000000000111100000000111100000000
000100000000000100000000000000000000
000000000000000000010000000000010001
000011110000000100000000000000000001
111100000001000000010000000000000000
000011110000000100010000000000000000
000000000000000011110000000011110000
000000011111000000010001000100000000
000000001111111111111111000000000000
000000000000000100011111000000000000
000000000000000000000000000000000000
000000000000111111110000000000010000
000000000001000000000000000000011111
111100000000000000000000000011110000
000100010000000000010000000000010000
000000000000000000010000111100000000
000111110000000011110000000000000000
111100000000000011110000000100000000
000000000001000100010000000000000000
111100000001000100001111000011110000
111100000000000000000000000000000001
000000000000000100000000000000000000
000000000000000000001111000000000000
000100000000000100001111000100001111
000000000000000000001111000000010000
000000000000000111110000000000000000
111100000000000011110001111111111111
000000011111111111110000111100001111
000000000000000011111111111100001111
000011110000000000011111000011110000
000011110000000000000000000000000000
111100000000000011110000000000010001
000000010001000000010000000000001111
000100010000000000000000000011110000
111100000000000000000000111100000000
000000001111000011110000111100000000
000000000000111111110000000000001111
000000010000000000000001000011110000
000000000001000000000000000111111111
000000000000000000000000000000001111
000011111111000000000000000000000001
000100000000000000010000000000001111
111100010001111111110000000000011111
000000010000000000000000000000010001
111100000001000000010000000011110000
000000000000000011110000000011111111
000100010000000000000001111100010000
111100000000000000010000000100010001
000000000000000100000000000000011111
000100010000000000000000000100000000
111111111111000000000000000100000000
000011110001111111110001000000001111
000000000000000100000000000000000000
111100000000111100000001000000000001
111100000000000111111111000000000000
000000000000000000000000000011110001
111111110001000000011111111100001111
111100000000000100001111000000001111
000000001111000011111111000000010000
111100000000000011110001000111110000
111100000000000000000000000100000000
000000000001000000000001000100000000
000011110001000000001111111111110000
000000001111000000000000000100000000
000011110000000000000000000000010000
000000000000000100010000000000001111
000000000001111111110000111100001111
000011110001000000000000111111110001
111111111111000000000000000000000001
000000001111000011110000000100000001
000011110001111111111111000011110000
000000001111000011110001000100010001
000000000000111100000000000100000000
000000000000000100010000000000010000
000011110000000000000001000000000001
000100010000111111110000000011111111
000100000001000000000001000000000000
000000011111111100000000111100010001
000000001111000100001111000111110000
000000000000000000000000000000000001
000011110001000000000000000000000001
000100000001000000000000000100000000
000000000001000100000000000011110000
000100000000000011110000000100000001
000000000000000011110000000000000001
000000010000000000000000000000011111
111111111111000000000000000100000000
000000000001000000011111111100000000
000100000000000100001111000011110000
000111110001000011110000111100001111
000000000000000000001111000000000000
000011110000000000001111000000000000
111111110001000011110000000111110001
000011110000000000000001000000000000
000000010000000000010000111111110000
000000010000000011110000000000000000
000011110001000011110000000000000001
000011110000000000000000000100000000
000100001111000000001111000011111111
000000000001000011111111000000000000
000100000000000000000000000000000000
000111110001000011110000000000000001
000000000000111100000000111100000001
000111110001000000000000000000000000
000100000000000000011111000000000000
000000000000000011110000111100010000
111100011111000000001111000000000000
000000000000000000000000000011110000
000000010000000000000000000100000000
000000011111111100010000000000001111
000000000000111111110001000000000000
000111110000000100001111111100001111
000000000001000100000001000000001111
000100000001000000000000000100000000
000011110000000000001111000000000001
000011110000111100000001111100000000
111100000000000000000000000000000001
000000000000000011111111000011111110
111100011111000000000000111100001111
000000001111000000011111000100001111
000000001111000000000000000000000000
000100011111000100010001000011110000
111100000000000100000000111111110000
000100000000000000001111000011101111
000100011111000000000000000011111111
000100001111000000000000000100000000
000011110001111000000000111111110000
000011111111000000000000000100010001
111100000001000100000001111100000000
000100000010000000000000000000001111
000000000000111100000000000011110000
111100001111000011110000000100010001
001000000000000011110000111111110000
111100000000000000010001000100010000
000000000000000011110000000011111111
111100000000000100001111000100001111
000000000000000000010000000000010000
000011110000111100000001111100010000
111100000000111111110000111100000000
000000000000000000011111000011110000
000011110000000011110001000011110001
000000001111111100001111111100001111
111100010000111100010000000000010001
000011100000000000010001000000100000
000000011111000100010000000100010000
000011110000000000000000000100000000
000000001111000000000000000000000000
000100000000000011111111000000000000
000000000000000000001111111100000000
000000010000111100000000000000001111
111100010001000100000001000000001111
000000000001000000001111000011110000
000100001111000100100000111100010001
000000010000111100010001111100000001
111111110000000000000001000011110000
000000001111000000000000111111110000
111000000000000000011111000000011110
000000000000000000000000000000000000
111111110000000000001111000100001111
111100000000000011110000111100001111
111100000000000000000000000011110001
000000001111111100010001000000010001
000000000001000011110000000000001111
000000000000000000000000000000010000
000000100010000000010000000000000000
000000011111000000010001111100010001
000000000001000011110000000111100000
000000010001111100000000000000001111
000011111111111100000000000100000000
000100000001111100001111111100000001
000000011111111100001111111111111111
000000000000000000001111000000000001
000000001111111111111111000000000000
000100010001000100000000000011110001
000000011111000100010000000000010000
000000001111000011110000000011110010
111111110000000100000000000011111111
111111110001000011110000000000011111
000100000000000000010000000000000000
000000000000000011110000000100000001
000100001111000000010000000011110000
111111110001000000000000000100000000
111111110000000000000000111111110000
000100001111000000000000000000000000
000011110000000011111111000011110000
000100000000000000000001000000000000
000000000000000000000001000100010001
111100001111000000001111000000010000
000000010001000011111111000100000001
000000000000000100000000000100000001
000100000000000011111111000100000000
000000011111000100011110000100000000
000000000001000000010000000100000000
000100000000000100000000000011110000
000100000000000100000000111100000000
000100010001000100000000000011110000
000000000000111111110000000000000001
000111110000000111111111000000000000
000100010001000000011111001000010000
000000000000000100001111000000000000
111100011111000000000000000000001111
000100010000000000001111111100000001
000000000000111111110000000100000000
000000000000111100001111111100000000
000000000000000000000001111111110001
000000000000000000000000111100010001
000000010000000100000000111100000000
000100000000000111111111000011110000
111100001111000000001111000000010000
000100000000000111111111000000001111
000100000000000000001111111100000000
000000000000111111111111000100010001
111111110000111100000000000000000000
000000000001000000001111111111111111
000000000001111111110000111111100000
000000000000111100010001111100000000
000100010001000000000000000000001111
000100010001000000010010000011110001
000100000001001000000000111100000001
000000010000000100000000111111101111
000000010001000100001111111100000001
000000000000000011110000000000011111
000100100000000100010000111100001110
000100000001000100010001111100001111
000100000001111011110001000000001111
000100000001000111110000111111010000
000000000001000000001111111111100000
000000000000000000000000111011101111
000000100000000100010001111100001111
001000000001001000000001000011011110
000000000001111111110000001000000001
000111110000000000010001000100000000
000000001111001000010001000000000000
000100010000111111111110000100010000
111111110000000100010010110111101101
000000001111000111110000111111101111
000100000001000000000000000011110000
000000000000000100010001111111101110
000000000000111111110000000000001111
000100000001000100010000110111011101
000011110001000100000001111111110001
000100000000111111110000111111110000
111100001111111100000000000000000001
000011111111000011110000000011110001
000000000000000000000000000000000000
000000000000000011110000000000000001
000000000001000100010000000000000001
111100000001000000010000000000001111
000000000000000000000000000000010000
000000000001000100000000000100000000
000000000000111100000000111100000000
000000010000000100000000111111110000
000000000000000000001111111100010001
111100010000000000000000000000000000
000000000001111100001111000100000000
000011111111000000011111000000000000
111111111111000011110001000100001111
000111110000000111110001000000000001
111100000000000011110001000011110001
000000000000000000000000000000000001
111100000000000111110000111100010000
111111110000000000010000000000000000
000000000000111100000000111100000000
000000010000000000000000000000000000
111111110000000100001111111100010000
000000010000000011110000000000010001
000011110000000000000000111100000001
111100010000000000000000000000000001
111100001111000011110000000100000000
000011110000111100000000111100000000
000000000000111100000000111100000000
000000000001111100000001000100000000
111100000000111100000000111100001111
000000000000111100000001000011110001
111100000000000000010000000000011111
000000000000000000010000000000001111
000011110001000000000000000000000000
000000010000111100000000000000000000
000000000001000000000000000000001111
000100001111000000001111000011110001
000011110001000100000000000011110000
000000000000000000000000000000000000
000011111111000011111111000000011111
000000010000000011110000111100000000
000100000001111100000001111111111111
000000000000000111111111000011110000
111100000000000011110000111100000000
000100000000000011110000111100010000
000000000000111100000001000000000001
000000001111000111110000000000000001
000100000000000000000000000000000000
111100000000000000000000000000000000
000011110000000011110000000100000000
000000001111111100001111111100000000
111100000000000000000000111111110000
000100000000000000000000111100001111
000011110000000011111111000011110000
000000000000111100000001111111110000
000100000001000000000000000011110000
000000000000000000000001000000000000
111100010000000000000000000100010000
111100000001000111110000000000000000
000000010000000000001111000000000000
000000010000111100000000000000000000
000011110000000000000001000000001111
000100010000000000000000111100010000
000000000000111100000001000000000000
111100000000111100001111000000010001
000011110000000000010000111100000000
111100000000000000000001000000001111
000000001111000100000000000011110000
000000001111111111110000111100000000
000000000000111111110000000000001111
000000000000000000000001000011111111
000000000000000011110000111100010000
000111110001111111110000000100010000
000011110001000000000000000000000000
000011111111000000000000111100010000
000100001111000100000000000000001111
000000010001000000000000000011110001
000000010001000000000000000000010000
000000000000000000001111000000001111
000011111111111100001111000011111111
000000011111000000000000000000001111
000100000000111100000000000000001111
000000000000111100010001000000010000
000000010000111111111111000000010001
000011110000111100010000000000001111
000000001111000100000000111100010000
000000010000000011110000000000000000
000000000000000000000001111111111111
000000000000000100001111111100000000
000011110000000111110000000100000000
000100000000000111110000111100000000
000000001111111100000000000000000000
111100010000000000010001111111100000
000000000000111100000000000000000000
000000010001000011111111000000010000
000000001111000000001111111100000000
000100000000111100000001000011110001
000000000001111100000001111100010000
111100010000000000000000000000000000
000000000000000100000000111100000001
111111111111111100010001111111110000
000100000000000000000001000000000001
000011111111000011110000000011111111
111111111111111111110001111100000001
111100001111001000010001000011110001
000000000000000100000000000100001111
111100000001000000010000000000001111
000000001111000100011111000000001111
000000001111000000000000000100010000
000011110000000000000000000100000000
000011110001001000000010000111110000
111111111111000000000001000000000001
111100001111000100000000000000000000
111100000000000100010000000000000000
000111100000000100010001000111111111
111100001111111100000000000100001111
000000001111000011110001000111111111
000011111111000111111111000000000000
000000000000000000001111000111110000
111111111111000100010001111100011111
000011110000000100000001111100000001
000000000000000100000000000000000000
000000010000000000000000111100010000
000000001111000000000000000000000000
000011111111000100000001000000001111
111100001111000000000001000000000000
111111111111111100010000111111110001
000011110000000000010000111111111111
000011111111111100000000000100000001
111100000000111100000000000000010000
000000001111000000000000111111111111
000011110000111100000000111100001111
000111111111111100001111000000000000
000000000000111100000000000000000000
000100010001000000000001000111110000
000100001111000100000000111100000000
000000010000111100000000000000000000
000000010000000000010000000000000000
000000000000000000000000111100000000
000100010000000000000000000011111111
000000000000000000010000111100011111
000100000000111111110000111100000000
111100010001000000011111111111111111
111100000000000000000000111100000000
000000000000111100001111000000010000
000000010001000000000000111100001111
000000010000000000010000111111111111
000000010000111100000000111100010001
111100001111111100000000000000000000
111100000000000000010000000011110000
111100010001111100000000000100000000
111111110000000100000001111111111111
000000010000000000001111111100000000
000100000000000000010000000000000000
000111110000000100000000111111110000
000000000000000000000000111111111111
000100010000000000010000111011101111
000000011111000000000000000100011111
000000010000000000001111000011110000
000100000001000100000001000000011111
111100001111000111110000000011110000
000000000000000000000000000000010001
000100010000111100000000111011110000
000000001111000000001111000011110001
111000000000000000000000000011111111
000100101111000000101110000100100000
000011111111111100010001111100000001
111111110000111111110000000111110000
000011111111111011101111000000000001
111111100000111111110000000100010000
000000000001000000000000000011110000
111100000000000100000000000100001111
111100001111000100011111000000001111
000000000000111111110001111000000000
111100000001111111110000000000000000
111100010000111100001111000100001111
000011111111111111110001000111110001
111011101111111100010010111100010000
000000011111000000010000000000010010
000000000000111111110000000011111111
000011110001000000000001111100000000
000100010000111100001111111111111111
111100010001111100001111111100000000
111000001111000000000000000111110000
001000011111000000010000000000001111
000000011111000000000000000000000001
000000000001111100000000000100000001
111100100000000000010000111100100000
001000100000000011111111000011100000
000011111111000000000000000000010000
111111110000000100011111001000010000
