001000001111111111111111000000000000
000011110001000011110000000111110001
111111111110000000000001111111110001
000011111111000000000000000111110000
000100011111111100000000000000000000
111100011111000011110000000011110000
111100010000000000000001111100000001
000011110001000111110000000000000000
000011110001000000011111111111111111
000000000000000100000010111100000001
000000010000111100010000000011111111
111100010001111100000000000011110000
000100000001111111110000000111110000
111100000001000000001111000000010001
111111111111000111110000111111111111
111100011111000011110000000000011111
000011110000111100000000000100000010
000111111111000000010000000000011111
111100000001000000000001000000010010
000000010001000011111111111100010000
111111111111111011101111000000000001
000000000001111100000001000100011111
111100000000111000010000000100100010
111011110001000111110001000100000001
111000001111000011110000000100010000
111111110001111011110001111100000000
111111110000000000010001000100000000
000000011111000100010000000111110000
000011110000000100001111111111110000
000000010000000111110001000100000000
000100000000111100011111000111110001
000111110001000000010010000100010001
111100000000111100000000000000001111
111100001111000011110000000111110001
000100011111000100001111000111111111
000011110001000111110000000011110001
111100001111000100000000111100000001
111100011111000011111111111111111111
000000010000000100010001000000011111
000000000000000000000000000000010001
000100000000000011110001000111110000
000011110000111100010000111111111111
000000010001000100010000000000010000
000000000000000011110001000100000000
111100000000000000010000000011111111
000011111111000000010001000000010000
000000010001111100001111000000010001
000000010000000000010001111100001111
000100100001000000010010000000100010
000000001110000011111110111111111110
000011110001000011100001111111010000
000000001111111100000000111100001111
000000000010000100000000000100000000
000000011111000000100010000100000010
000100010001000111110000001000001110
000011101111111111101111000000001111
000000010001000100011111000100001111
111100001111000000001111111111101111
111100010000000000010000111111110001
000100100001001011110001001100001111
000111101110000011101111111111101111
111100010000111111110000111100000001
111100000001000000000000000000000000
000100000000000111110001000100000000
111111111111111100000001000011110000
000000010000000100000000000000010001
000111110000111100000000111111110001
111111110000000000000001000100000000
000011111111000100000000000100100000
000100000000000100010000000100010000
000111110001111111111111000000000000
000000001111000100001111000100010001
111100010001000100010000111100010000
111100000000000000000000000100010000
000000010000000100010001000100000001
111111110000111100010000000100000000
111100000000111111111111000000010001
111100001111000100010000111100001111
000000011111000100000001000100001111
111111110000000000011111111111111111
111000000000111111110000111011111111
000100000000000011110000000000000000
111100010010111111110000000000000001
000100011111111111110001000000011111
000000000000000011110001111100001111
000000000000000100000000111100000001
111000000000000100000000000000001111
111111100000111111110001111111110000
111111110001000100000000000100100000
111111111111111100000000111100000001
000100000000000011111111000100010001
111111111111000011111111111111100001
000100010011111100010001111111110000
111100000001000011111111000000000000
111100001111000000011111000111110000
000000000001111100000000000100010001
111111110001000000010010000100011111
000011110000000000001110111011110000
111111101111000000010001000000100001
000000000001111100000000000011110000
111100000011000100010000000100001110
000111111111000011101110111111111110
111000010011111100010011111111100000
000011110010000000010000000011110000
000000001111000100000000000000010000
000100100001000100000000111111110010
000100010000000100000000000011111111
000100010000000000000000111111101111
111111111111111000000000111100010001
000100010000000111111111111100000000
000000000000000111110000000011101111
000011111111111111100000111000010000
000100100000000100010001000000000001
000100000000111011110000111111111111
111111101110000100001111000111111111
000100000000000000000000000000000001
001011111111001000010000000000000000
111111111111111111101111111111111111
000011111110000100010001000000100010
000000100001000000010001111111110000
000011110000000011110000000011110001
000111110000000000100001000100010001
111100010000000000010000111111111111
000011110001111100001111111111110000
111000000001111011101111000100001110
111100010000111100001111000011111111
000000001111111111111111111100000000
111100001110111000001110000011110000
000000100001000111110001111111100000
000111110001000000001111000100010001
111100000000000100010000000011110001
000100000000111111111111000011110000
111111110000000011111111000000001111
111100000001000011111110000011110000
000111101110111111111110000100000000
000000011110000100000000000000011111
000000010000000000000000000100010001
000011100001000011110001000000000000
111100000001111100000000000100010001
111111110001000000010010000000000001
111100100000111011111111111100001110
111100010001000100000001111100000000
000011110000111100010000000000000000
000011111111000000010000000000000001
000000010010000000010000000100010000
111111101111111100001111000000010001
000011110000000100010000000100011111
000011111111000000010001000000010000
000100000000111100011111000011110000
111100010000000100000000111111111111
000100000001111100000000111000011111
000011110000111100001111000000000000
000000000001111100000000000000000001
111100011110000000000000111111110001
111100000000000000001111111100010001
111111111111111011110000000000010001
000111111111000011110000001000010001
000000010000000011110001111100001111
000000010000000011111111000000010001
000000000000111100001111000100000001
111111111111000100011110000100001111
111100000000111100001110000100010000
111100000001000000000000000111110001
000000001111000000001111000000010000
000011110000000100001110111111111111
000100010001001000000000000100000000
000000000010000100000000000100010000
000100010001000000001110000100010001
111011110001111111110001111100010000
000011110000000000001111001000011111
000011110001111100011111000000000000
111000001111000000001111111100001111
000000000000111100000000111100010001
000000000000000111110000111111111111
000100000000000011110000000100000000
000000011111000011111111000100100001
000011111111000011110001000000000000
111111111111000000000000000011111111
111100001111000111110000000100011111
111100010001000000010001000100010001
111100000001000000000001000011110000
000000000001111111110000111100000000
000011110000000100010000111100010000
111100000000000000011111000000011111
000000000001000111110000000011110000
000011110000111100000000000000010000
000000010001000011110001000111110000
111100000000111100000000000111111111
000000010000000100000000000011110001
000000010000111100010000111100011111
000000010001111100000000000111110000
111100000001000000010001111111110001
000111111111000100010000000000001111
000000010001000011110000111100010001
000000000000111100010000111100010000
000100000001000000000001111111110000
111011111111111100000000000011110000
000000011111111100100000111100001111
111111101110000011111111111111111110
000000000000001000010000001000100001
000000010000111100000000001000000001
000100000000000100000000000000000000
000111111110111100010000111100000000
001000100001000100010000000011101111
000100010000000011110000111111110000
000100011111000011110000111100001111
000000001111000011111111111100001111
000111110001000000001111000011110010
111100000000000000000000000011110000
000100010001111111100000111100000000
111100001111000011111111111111100000
111100000000000000000001111100000001
111111111111000100000000000111110000
111100010010000011110001111100000000
000000001110001000010001000000000000
000000000000111100001111000011100000
000100000010111100001111111100010000
000000000000000111111111000100000000
000011110001000100000000000100000000
000100000001000111111111000111110000
001000100010111100000001000100010001
111100011111000000010000000000000001
111111111111000000000000000000000000
000100010001000000000000000100010001
000000100001000100000000111000000000
000100000001000000000001111100001111
000100010001000111110000000000000000
111100000000000100010001000100000001
000000001111000111110000111111110001
000000010000000000000000000011111111
000100000000000111111110000100010010
000000000000000000011111111100010000
000000010001000000011111001000011111
111100000000000111110000000011110001
111100001111000011111111000011111111
000100000000000100010000000011110000
111111111111000000000000111111110000
000111110000000100010000000111110000
111100001111000000000001000011110000
000011110000111100001111000000000000
000000000010000011110001111111101111
111011101111000100010001111100011111
001000010010000111110000111111111110
000100010001111100000000000000000001
001000000001000000010001111111111111
111100000000000100000000111000000001
001100001111111100011111110111111111
000000000000000000010000111111110000
000000001111000111110000000000010001
000011110000111100010001000000010001
000011110001000011111111000011110000
000000001111000100001111111100011111
111000001111000000101111000100100001
000000011111000100000001000000000001
000100000000000100000000111100010001
111100001111000000001111000000010000
111100000001111100010001111000000000
000100100001000000000000000011111111
111111110001111100000001111000000001
000000001111000000000000000100001111
000000001111000000010001000000100001
111100000000000100001111000000001110
111100000000000000000000000000011110
000011110000000000010000000100000000
000100011111000100000000000100000001
000000000000111111110000000011110000
000000011111000000000000000100010000
000100001111000100010000111011101111
000100010001000000000000000100000000
000000000001111100010000000100000000
000100011111111111111111000100010000
000000000000000111110000111100000000
000011110001000000000000111111111111
000100010001111100001110111100011110
111100010001000111110001000011110001
111100000001111111110000000100011111
111100001111000011110000111100000000
111111110000000011110000000011110000
111111111110000011111111111011101111
000000010010111100000010000100010000
000100010000111100000001111100000000
000100000000000011111111000000000000
000100010000000100011111111111110000
001000011111000000010001111100011111
000100010001000011111110000111111111
000100010000111100000000000011110000
000011111111000011111111111100000000
001000010010000011110010000000000001
111100001111111111111111001000000000
000000001111111100010000000111110000
111111111111000011111111001000010001
111100000001000000000000111111110000
000000010000001000010000000111111111
000000010001000000001111000000000001
000000010000000111111111000000001111
000100000000111100000001000100000000
111111111110000011100000111100000000
000100010000000100010000000000100001
111100000000111111110000000100010001
000011110000111111111111000000100001
000000001111000100000000001011110000
000011110001000111110001111100001111
000111111111111100000001000100100000
111100001111000011110000000100000001
000011011111000000000000000111110000
111100011111000011111111000100011111
111111111110000111111111000100010001
111100010001111100010000000000000000
000011110000000000010001000000010000
000000010000111111110000111111101111
000111110000111100001111111100000001
001000100010000111110000000100001111
000000000000000100010000001000010000
000100000001000000010000001000010011
000011110001000100001111111100000000
111100001110111100001111111100100000
000000010000111100011111001000010001
000011111111000000010000000000000000
111100000000111111110001000000010000
000100001111111100001111000000010000
000100101111000100011111000000010001
000100010001000111111111000011111111
000000000000000011111111000100000001
000000000001000000011111111100000001
000000000000111111111111000100000000
000111111111000000001111000000010001
000000011111000011111110000100010000
111100000000001000011111000100100001
000011110000000100001111000000010000
000000001111111111110001000100000001
111100001111111100010000000100010000
000000011110000100010000111100001110
000000010010000000000001111011101111
111111110001000000011111000100010001
000111111111000000011111111111110000
000111110001000100000001000100010000
000111110000000000000000000100000001
000111111111000011110000000000000000
000000000000000100000000000000000000
000000011111111111110001000111110001
000011110000111100001111111111111111
000100000001000000010000111111110000
000000000001000000001111000100010000
000000000000000000000001000011110001
111100000001000000000000000000000000
000000011111000011110000111100001111
111100000000000111110000111100011111
000111110000000011110000000011111111
000011111111111111110000000100000000
000000010000111100010001111100000000
000011110000000100010000000000000001
111100011111000011110000111100001111
001011111111000100000000111100011111
000011110001000011110000000011110000
000100000000111100001111111000001111
000000001111000000000000000100001111
111111110000000111110000000000010000
111111110001111100000000000000010000
111100010001111100000000111100000000
111111111111000000001111000000011111
000000000000000000000001111100010001
000000001111111111110001111100000001
111100010000111111110000000100010000
111100011111000000000000000000000000
000000001111000100100001000000010001
000011110000000000010000000000010000
000111110000000111110000000111110000
111111110001000000010000000100011111
111100011111000000010000000000000000
000000000001000000000000000100010000
000011110000000000000000111100000000
000000001111000100000000000011111111
000000001111111100000001111100000000
000100010010111100000000111111110000
001000100000111000011111000100100010
111100001111111111110001000000000001
000000001111000100000000000000001111
000111110000000000011111000011111111
111100000001000111110001000100000000
000100001111000000011111111000010000
111111110001000111110000000111111111
111100010000111100000000000111110001
111100010000000100001111111111110000
000000010000000100011111000111110000
000011110000000011111111000000010000
000000000000000111111111001000010001
111100011111000000011111111011111110
000000000000000100011111000011111111
000011110001111100000000111100001111
000000000001111111110000000100100001
111111110000000100001111000000000000
000100000001111100010000000000000001
000100010000000111110000111100000000
000100001111001011110000001000010010
000011110000000111100000001000100000
000000000000000111111110001100010001
000000000000111100001111000100101110
000111111111000011111111000000000000
000011110001000100010001001000010001
000000000001001011110000000100000000
000100000010000011110001000011111111
000000000000000000010000111111111111
000100000001000000001111111011111111
000000001111111100000001111111111111
111100000000000000001111000100000000
000100000001000100010001000000000001
111100000010000011111111000000001111
000011110000111111111111000011110000
000100010000000000000000000000000001
000000000001000000000000000011110000
000000000000111100010000000000000001
000000000010111100000001000011111111
000000001111000011110000111100001111
000011110000000100001111111100000000
111100010000000000000000000100000001
111100001111000000010001000000000000
110111101101111111101110111111111110
000011111111000000000000001000010000
000111110000000000011111001000010000
000100011111111100001111111100000000
000111111111111100001111111111110000
000100000000111111111111000011111111
000000000000000000001111000100010001
000100000010111100000001000000010000
111000001111000000011111000100001111
000000000000000011110000111111111111
000000000000111011111111111100001110
111011011101111111111110000011101110
111111111111000000000000000100100000
111111110000000000010001000000000001
111100010000000111110000111100010000
111111110000111100001111001000001111
000011111111000100000001111100010001
000100010000000111110001000011111111
111100010001111100010001111100001110
000000010000000100000001000100000000
111100000000000000010000000100000001
000100000000000100011111001000010000
000011111111111111110000000011111110
000100000000000011110000000000010000
111100010000000000001111111100010000
111100000000111100010000000100000001
000011111111000100010001000000011111
000000000000111100000001000000010010
000000011110000011111110000100001101
000000001111000011110000000000000000
000000010000000100000000000000000000
111100011111111100011111000011110000
111100000000111111100000111011010000
000100001111000011111111111111110001
000000001111000100000000000000010001
000000010000000000000001000000000001
111100010001000000010001000000010000
000100001111000000000000111111111111
000000010001000100100000000000011111
111000001111111100001111111111110001
111111111111000100000000000000010010
000111110000000000001111111111110000
000000000000000100001111000100000001
001111110000000000100000110100001111
000011111111111111111111000011110000
111111111111000011111111000000000000
000011110000000100010001000000000000
000100001111111000000000111100000000
001000000000111100001110111111111110
000100001110000000000001111000000000
001011110000111011111111110111110000
111111110000111111111111000000001111
111100000001111111100000111100011111
000000011111111111110000111000000001
000011110001110111101111111011100001
000100010001000000000001001000100001
000000101111000100001110111100001111
000100010001000111110010001100010010
000000101111000000010001000000010000
000000111110000000001111000100000000
000100001111000100010001000000000000
000000011111000100000001111100000000
000000000000000011110000000000000000
000100010001000111100000001100010000
000000000000000011110001000000000001
111111110000000011110000111111110000
000000001111000000000001111111110001
000100000000000000000000111100010001
000000001111000000000000000100000000
000100010000000011101111000100001111
000111111111111100010001000000000000
000000010001111011111111111011110001
111100000001000011110001000011110001
000000001111000011110000000011110001
000100000000000000001111000011111111
000011110000111011101111000000000001
000100100001000000011111111100100001
000000000000111111111111000000000001
000000001111000111111111111100000000
000100010001111100000000000000010000
111111110000111100010001111111110000
000000000000111000001111000000000000
000000000000000100000000000000010010
000000010001000000000001000000010001
000000000000000011111111000011111111
111100000000000100010000000000000000
111011111111111111111111111011101111
000011110001000000001111000011110000
000100000010111111110000000000000000
000100000001000011110000000100000000
000000010001000100011111000111110000
000100000001111100001111111011110000
001000100000111011110001111111110010
000011110001000100000000000000000000
111111110000000011110000000000001111
000100100001000100000000111100000000
