00000010000001011111111011111001111110111111111011111110111111010000000100000000
11111010000000011111111100000101111111010000001000000101111110100000000000000000
00001011000001000000000100000101000010100000000000000110000010110000000000000000
00000110111111111111101111110110111110111111010100000011000000110000100000000000
00001001111111110000001111111000111101111111111011111001000000001111110100000000
00000001111110100000011100000001111101100000001100000000111111001111111000000000
11111110000011000000011011111111111110111111101000000111111110101111011000000000
00000011111111110000001000000100111111010000001000000001000000100000000000000000
11111100111111101111111000000000111111001111110100000000111111111111111000000000
00000010111100011111101011111100111110011111111011111110000010001111110000000000
11111110000001101111100011110110111111010000000011110111000000001111110100000000
11111100111111100000010000000001000000110000100100001010000001110000010000000000
00000000111111011111111000000010111111111111110011111110111111000000000000000000
00000011000011000000010011111111000000011111101111111100000001110000000000000000
00000000000010001111110000000111111111110000001000000011111111010000111000000000
00001010000011001111011111110111000000000000000111110011111111100001000100000011
00000010000000100000001000000011000001011111110011111111000000010000010000000000
11111000111110101111111111111001111110110000000000000010111111111111110100000000
11111001111111101111100000000111000000110000000100000100000000000000010000000000
11110111111101111111110111111010111111000000010000000100111110101111101100000000
00000011000000010000000100001000000001110000010000000011111110100000010100000000
11111101111111010000000100000001000000001111111000000010111111001111110000000000
11111110000001101111101011111010111111101111011111110111111100111111011000000000
11111111000000111111110111111100111111000000001000000000000000110000000100000000
11111101000000010000010011111101000001000000000000000000000000001111111000000000
11111010000000011111110100001011000001110000110000000001111101011111110100000000
11111000111110011111110111110101111111001111100100000010111111000000100000000000
11111101000000001111110000000110000001110000100111110011111101101111100100000000
11111111000000011111111011111110000000111111111111111100111111111111111000000000
11111111111110101111111100000101000000100000011000000010111111110000100100000000
11110111111111101111010111111011111111001111001011111101111110111111011100000000
11111110000000011111110011111011000000000000001111111110111101101111111100010101
00000001000001111111110111111010000000010000000111111101111110111111111100000000
00000011111111110000000011111111111111001111110100000011000000101111110000000000
00000001000010001111111100000100000001100000000100000011000000001111111100000000
00001000111111101111010000000100111110001111101000000010000000010000000000000000
11110110111110010000001000000000111111101111111111111101000000100000000000000000
00000100111101011111011000000011111101101111110000001011111111100000000000000000
11111100111101111111110011111010000000011111111000000100111110111111101100000000
00000001111111111111110100000011111111010000001100000010000000110000001100000000
00000010000000010000000000000001000001001111111111111111111111110000010000000000
00000010111110101111101011111111000000111111111000000100000010001111110000000000
11111010000000111111110011111100000000010000000011111011000000100000001000000000
11111111000000000000000100000010111110111111110100000011111111001111111000000000
11111111000000011111110111111100000001000000001011111100000000000000000000000000
00000000000000110000001000000011111111110000010000000000000001000000001000000000
00000010111111111111111011111110111110100000000011111011111111010000000000000000
00000110000010001111110011111010000001011111111111110010000000101111110100000000
00000000111110110000001011111101111111010000001111111111111111110000001000000000
00001000111111110000011011111100000001000000000011111011111110010000001000000000
11111011111110000000000111111011000000001111110000000011111111110000000000000000
00000010000001010000101011111010000000101111111011111000111111101111100000000000
00001000000001000000001111111100111111010000000011111110111101111111101100000000
11111100111111101111101111111001111111011111111111111001111110101111110000000000
00000011000000111111101011111011000001000000000100000001111110011111101100000000
00000011000000101111111000000001111111101111111011111100111111100000001100000000
00000001111111001111111000000001000000011111111011111110111111110000010000000000
00000110000001000000011100000000111111010000010111111010111100111111100100000000
11111011111111100000011111110100111101101111101000000111111111001111101100000000
00000110000000110000001100000000000000100000101111111100111101011111110000000000
00000010000000100000001011111111000000110000001100000010111111110000000100000000
11111111000000110000101011111100111111100000000000000011000000110000001100000000
00001100000001000000011011110100111101001111001111110111111100111111100100000000
11111011000001100000100111111101000001010000000011111101000001001111111000000011
00000100000000111111110100000001111111111111110000000001000000110000000100000000
11111110000000101111111000000011111111011111110100000001000001001111110100000000
00000010111111110000010011111101111111001111111100000010111111101111111100000000
00000011000000011111110111111111111111101111111100000100111111101111111100000000
11111111111111001111111111111101000000011111110111111100111111011111111100000000
11111110111111010000000011111110111111101111110100000011000000101111110100000000
00000100111111000000000011111110111111000000010000000011111111110000001100000000
11111100111111011111110111111110000000010000010000000000000000100000010000000000
00000001000000110000001111111111000001000000001000000001000000000000001000000000
11111110111111000000010011111100111111011111111111111110000000100000000000000000
11111101111111010000000100000011111111111111111000000100111111001111111100000000
00000010000000101111110011111111000000100000001000000001111111011111111100000000
00000000000000011111110100000000000000000000010000000010000000000000000000000000
11111111000000101111111111111110111111100000001000000000111111000000000000000000
11111110111111111111111000000010000000000000001011111111000000111111110000000000
00000001111111111111111011111100000000001111111000000100000001001111111000000000
00000010111111011111110011111100111101111111100011111101111111001111110000000000
00000100111110110000000011111011111111011111101100000000111111010000000000000000
00001001000010010000001000000100111111001111111000000011111111110000000000000000
11110110111100100000001111111001111110011111110000000000000000011111111100000000
11110110111101101111011100001000111111011111110000010100000010101111110000000000
11111001111110101111101011111011111110011111111000000100000000010000001000000000
11111001000011010000000111111000000000100000000000000110111110110000000100000000
00000001000000000000001100000001000001001111110000000000000000101111101100000000
11111110000000101111111111111101000000100000010000000000000000000000010000000000
11111011111110100000010111111111000000011111111000001011000000011111111000000000
00000101000000101111100011111101111100111111111111111011111100110000001000000000
11111111000010000000011111111111000010000000010000000111000000011111110100000000
00000000111111000000000011111101111111001111111000000100000000000000001000000000
00000100000100000000000011111101000000001111111100000011000000000000001000000000
00000101000000010000100011111111000000000000010000000001111111110000010100000000
00000100111111011111110100000100000000110000001100000010000011000000011100000110
00000010000000101111110111111110111111000000000011111110111110110000000100000000
11111100000000010000010111111111111110101111101111111011111110101111111100000000
00000111000000011111101100000010000000010000000100000000111111111111111100000000
11111111111110100000011011111110111101100000100011111110111111010000000100000000
11111101000001100000101000000010000000010000010000000011111111011110101000000000
11111100000000110000010111111011000000100000010100000000111110011111111000000000
11111100000100100000101000000010000001100000001000001010111101011110111100000000
11111101000000010000000100000001000000100000000000000000111111111111110100000000
11111110111111010000001111111111000000110000001000000010111111000000000000000000
00000010111110010000010100000101111101100000001011111111111110001111001100000000
11111010000010011111101100000011000010100000000011111000111101111110110000000000
11111100000000000000001100000100000000110000011000001011000000100000010000000000
00000011000000001111111111111111111111010000010000000011000000110000000100000000
11111010000010010000010000000001000010100000010100000001000000001111100100000000
11111111000001111111110011111100000000001111111011111110000000100000010100000000
00000110111111110000000111110111111110011111111011110001000000110000100111111100
11111111000001000000011111111101000000000000000100000011111111001111110000000000
11111010000001100000010000000000111110101111110111111110000000011111111000000000
11111111111111101111111100000000000001100000010100000010000000000000010000000000
00000010000010010000001100000000111111001111111011111000111110100000001100000000
00001001111110101111100111111101111101001111101011110011111110110000001000000000
00000011000010001111110100000110111111111111101111111111111110111111110100000000
00000101000001000000011000000000000000000000011011111100111111101111100000000000
00000001111111101111111111111111000001000000001000000011111111101111111000000000
00000001111111011111111100000000000001001111111011111101000001000000001100000000
00000101111110001111110100000100111111000000001011111110111111010000010000000000
11111010000001000000010011111010000011010000010011110110000000100000000100000000
00000011000000010000011011111100111111010000000111111100111110011111100100000000
11111101000000111111111011111111000001000000001000000010111111101111111100000000
11111010111110111111110111111110111111100000010011111101000000100000001100000000
11111011000001001111111000000110111111011111110100000101111110100000000100000000
11111110000011100000001111111011111111110000010111111110111101000000001100000100
00000000000001110000011111111110000001110000001000000100000001001111111000000000
11111100111111101111111000000001111111101111111011111100111110101111111100000000
00000000000000110000001011111111000000111111101100000100111111101111101000000000
11111111000001001111101000000001000001011111101000000100000001011111101000000000
00000111000010000000001000000000000001010000000011111110111111001111101000000000
00000010000010001111101100000000000001011111101000000000000001011111011100000000
00000000000010110000001011111001000000100000001111111010111110111111111000000000
00000001111111111111111000000000000001000000000111111110111111111111110100000000
00000000000001000000000000000011111111011111110011111110000000100000001100000000
00000110000000001111101000000010000000111111101011111101111101111111011100000000
00000000111111010000001111111000111111011111101111111100111101111111101100000000
11111111000010101111111011111101000010010000010011111011111101111111111000000000
11111100000001000000001000000011111111000000001011111101111111001111110000000000
11111011111111110000010111111101000000000000000111111011111110111111101000000000
00000110000001011111110000000010000000011111101111111101111111011111010100000000
11111111111111010000100111111101111111001111110011110110111111010000000100000000
00000001000000000000001100000010000000111111110000000010111111010000000000000000
00000010000000010000000111111100111111100000100011111011000000000000000000000000
00000101000000110000001111111110000000001111110100000010000000011111111100000000
11111100111110111111011011111001111111000000000011111101111110101111110100000000
11111110000000110000000111111011111111100000001000000110111110011111100100000000
00000000111111000000001011111110111110100000010011111110111110110000000100000000
00000000000001100000000011111111000010100000001111111100111110111111111000000000
11111101000000101111111000000010000001000000000000000010111111110000000100000000
11111111000000010000010000000100000000010000001111111101000000101111110100000000
11111100000000100000001011111000111111001111110111111101111100011111001100000000
11111110111111100000001111111011111100111111110000001000111110011111111000000000
00000010000001100000011000000000000010100000010111111101111101011111011100000000
00000011000000110000000111111100111111100000010000000010000000101111111000000000
00000000000000110000011000000000111111100000001000001001000000001111101100000000
00000000000001001111111011111010000001000000000111111100000000100000010000000000
11111100000001001111111011110110000000000000001111111111000000001111101000000010
11111111000000010000001011111110000001000000000100000001000000001111111000000000
00000010111111111111110100000001111111110000001111111100111111110000001000000000
00000011000000101111111011111100111111001111110100000001111111101111111100000000
11111110000000110000001111111111111111001111111000000011111111100000010000000000
11111101000000001111111100000001111111011111110100000010111111111111110100000000
00000001111111000000010000000000111111011111110011111100111111010000000100000000
11111101000000100000010000000100000000001111110100000000000000110000001000000000
11111101111111101111111100000001111111011111111100000010000001001111111000000000
11111101000000010000000000000011000001000000000111111101111111010000000100000000
00000100111111100000000111111100000000101111111000000001111111111111110100000000
11111101111111011111111000000011000000101111111100000010111111111111110100000000
11111111000000100000001100000010000001011111111000000011111111101111111100000000
00000010000000101111111100000011111111111111111111111111000000010000010000000000
11111111111111011111111111111111111111111111110111111100111111000000010000000000
11111111111111101111110000000010000000101111111100000000111111110000000100000000
00000001000000101111111011111101111111001111110111111101111111011111111100000000
11111110111111011111111100000001000000110000000100000011111111110000001100000000
11111101000000010000001011111100111111110000001011111101111111010000010000000000
00000000000001000000000000000100111111010000010000000100000000111111110100000000
00000000111110111111101100000010111110111111110100000000000000001111110100000000
11111011111111011111111111111111111111101111110100000000111111010000010000000000
00000010111111101111110100000010111111010000010000000011111111011111110100000000
11111100000000101111110111111100111111000000011011111101000000000000001000000000
11111100000001000000010011111111111111111111111000000001000000011111110100000000
11111110000000100000001000000000000000010000001111111110111111101111111000000000
11111100111110100000001000000011000000011111111111111110000000101111110100000000
11111110111111010000000111111111000000101111111000000000111111101111111000000000
11111111000000100000000000000010111111110000010100000000000000110000010100000000
00000000000000001111111100000001000000000000010000000011111111011111111000000000
11111101000000100000000011111101000001001111110111111101111111110000001100000000
11111100000001000000000100000000000000101111101100000010000001000000001000000000
00000010000000011111110000000010111111000000000100000010111111101111110100000001
00000001000001000000010011111100000000100000000111111111111111011111110100000000
11111111000001111111111100000010000010000000001000000000000000100000001000000000
00000010111111111111111100000010000000101111101100000001111110111111111100000000
11111110000010010000010111110111000000111111111011111100000001000000000000000000
00000001111111000000011000000011111111010000010100000110000001010000010000000000
11111100000010100000000111111011000001111111111111111100000001001111110100000000
11111100000000110000000011111111000000001111110011111110111111001111100000000000
00000011000000010000001100000011111111111111111100000001000000110000000000000000
11111101111111101111111111111110000001001111110100000010111111111111111100000000
11111111000000101111111011111101111111001111101100000000000010110000011000000000
00000001111110110000010011111110111101001111100000000010111110111111110000000000
00000000000000010000011011111100000010010000010011111110000000101111111000000000
00000011111111101111111000000011000001000000000111111101111111101111111000000000
00000000111111010000011000000111111111111111100011111111111110101111111000000000
00000010000001100000000000000101000000110000000111111011111111110000000100000000
11111011000000010000001011111011111111011111101100000010000000111111101100000100
11111101111111010000000000000001111111011111111000000100000000100000010000000000
00000001000001000000001000000000000000011111111100000001000000111111110100000000
11111110000001001111110111111110000001001111111111111101000000110000001100000000
00000110000000110000001100000100111111001111101111111100000000001111111000000000
11111111111110100000001100000100111111110000000111111001111111000000000000000000
00000001111111111111110100000010000000010000001111111110111110001111101000000000
11111000000000110000010000000001000001100000010000000010111111111111100100000000
11111110000000111111110100000100000000011111110100000011111111001111111000000000
11111100000000100000000111111111111111000000000000000100000000010000000100000000
00000010111110100000001000000000111111010000000011111011111111011111110000000000
11111100000000111111101000000111000011000000001011111100111101110000000000000000
11111001111111110000010011111010000000001111110100001001000010110000100000000000
11111101000000100000000011111101000000000000001000000100000001000000000100000000
00000001000000010000010000000101000001000000100111111111000000000000010000000000
00000110111111101111111111110111111111111111110000000111000000111111111100000000
00000111111111111111111100001001111111011111111111111110111110011111111111111111
00000011111111111111111011111100111110101111100011111010111110101111011000000000
11111101111111110000000000000010000000000000100111111101111111110000000100000000
11111111111111111111110011111101111111001111101011110111111101011111000100000000
11110011111011011111001011111011111111010000001000000010000001000001000000000000
11110100111011101111100000000100000001100000001100001100000010010000110000000000
11110010111011111111010011111011111111010000001000000010000000000000000000000000
11110100111110011111110111111100111111101111111111111100111111000000000100000000
00000011000000111111111100000001000000011111110011111110000000100000001100000000
00000001111111010000001111111100111111000000000100000011111111000000000100000000
11101110111101101111010100000010111101101111110100000010111110111111101000000000
11111011111101111111101000000000111111110000010100001001000000010000011000000000
11111101111111101111110011111001111110011111011111111011111111001111101100000000
00000010000000111111111111111100000000011111111111111110111111110000001100000000
11111100000000101111101111111000111111101111111000000011111111110000010100000000
00000001000000000000011000000101000000101111100000000011000000111111110100000000
00000000111101111111010000000101111111110000011111111111000001100000000111111000
11111110000000100000001000001001000010010000100100001011000000111111110100000000
11111100000000001111100100000110000001000000110011111010111110011111110100000000
11111011111101111111011111111111000000010000011000000111000000111111111100000000
11110110111111100000010100000110000010010000111011110111111010011111000000000000
11101111111110011111011100000101000101000000110111111011111011101111001100000000
00000000111111111111110100001111111111110000010011110101111011011111011000000000
11111100000010011111100111110111000001100000101011111001111110110000011000000000
00000100000000100000001111111110000000100000000011111111111111100000001100000000
11111111000001000000001111111100111111110000010111111110111111100000010100000000
11100101111011101111010111111111000001000000101011111110111100001111001000000000
11111111000010100000100111111001111110011111110011111011111110010000000000000000
11111101000000101111100100010101000110000001100000000011111100001111011000000000
11111111000000111111111011111100000000100000000000000000000000000000001000000000
11111010111111010000000100000011000011010000110000000011111110001111111100000000
00000101111101100000001011111110111100111111010011111010111110001111101100000000
11111001111110110000101000000111000010010001001000000001111101001111111000001100
00000000111111101111111000000000111110001111110011111111000001001111110100000000
11111011000000011111111111111100000001000000000111111011111110011111111100000000
11111110000000000000011011111110111111011111111111111101000001001111111000000000
00000000000001110000111011111110111110111111101111111110111110001111110000000000
00000111111110011111100011111101111101101111101011111011111111000000010100000000
00000101000000101111111111111111000000101111101011110110111101110000010000000000
00010010000000001111110111111110111110101111101111110100000010100000110000000000
00000011000000111111110011111101111111000000000000000001111111001111111100000000
00000100111111101111110011111100111111110000001100000010111111010000001100000000
00000000111111111111110100000000111111010000000000000011000000100000010000000000
11111011111101101111101100000110000000011111101111111111000000001111100100000000
00001000111111111111111111111111000000110000000111111010000001110000010000000000
00000001000000001111110011111110000000110000000100000011111111000000000000000000
00000000111110100000001000000010111111110000010011111110000000001111101100000000
00000001000011101111110111111010000001111111010100000110111111100000010100000000
11111000111101110000100100000010111111100000001100001000000010001111011000000000
11111110000000111111110100000011111111110000010011111110111111111111111000000000
11111100111111000000000000000000111111111111111100000011111111110000000000000000
11111100111110100000001011111101000000010000000000000010000000111111101100000000
11110110111110111111100100000001000000110000000111111110000001100000001000000000
11111111111110001111111111111110111110111111111011111110000000011111101100000000
11111110111110110000000111111011000000010000001000000100000000000000001000000000
00000000111111111111110100000011111110001111101100000010111110111111110100000000
11111111000000101111111011111110111111110000001000000000111111011111110100000000
00000010000000000000000111111110111111101111111000000001000000011111111000000000
11111100111110000000001000000101111111110000000000000100000001100000010000000000
11111101000000001111101000000000000001101111111000000001000000001111111100000000
00000000000000010000001100000001000001100000000000000010000001010000001000000000
11111101111111010000001111111101111111000000010000000000111111011111110100000000
11111100111110111111110111111110000001101111111100000000000000001111110100000000
11111110111111111111100000000000111111011111110011111111000000111111110100000000
00000100111111101111101111111110000001011111110111111101000000111111111100000101
00000010111111111111111011111110000000010000011011111111111111111111111000000000
00000100000001010000001011111011000000101111101000000101000001011111110100000000
00000011111111111111101111111110111111111111110111111100000000010000010000000000
11111110111110011111111011111100111110101111110100000001111111011111110000000000
11111110111111011111110000000100000000100000100011111101111110010000000100000000
11111011111111100000000011111111111111101111100111111110111111011111111100000000
11111110000000101111101100001000000001000000011111111000111110100000010000000000
00000011000000101111111011111111000000010000001000000100111111010000001100000000
00000001000000101111111000000000000000111111110100000011111111011111111000000000
00000001111110010000000011111000111100001111101011110110111100000000001100000000
00001001000001010000011100000000111110001111111011111111000000010000000000000000
11111110000001000000010111111110000000000000011011111011000000100000010000000000
11111110000000011111111111111111000000110000001011111110111111101111110100000000
00000010000000001111111000000001111111010000000011111111111110010000000100000000
00001010000011100000101100001100000010110000010100000111000010110000000000000000
00000011111111111111111000000101000000110000000011111101111110101111011111110011
00000011111111100000000111111110111111001111111011111100000000010000000100000000
00000000000000000000000100000000000000001111110111111101111111000000000000000000
11111100000001001111111111111110111111111111111111111100111111000000001000000000
11111111111101111111100011111000111111011111100100000001111110101111111100000000
11111100000001001111111011111100111111011111111100000010000001000000000000000000
11111001111111010000000011111001111110111111101111111111111110010000001000000000
11111010000001000000101011111011000010010000000011111010000000111111110100000000
11111110000000111111111100000000000000101111111011111111111111011111111000000000
00000000000000000000001000000001111111010000000100000001111111100000001000000000
11111101000001001111111011111010111111011111111000000000000000011111111100000000
00000011000000000000000100000001000000011111111100000000000000000000001000000000
11111110000000010000000111111101111111111111111111110110000000101111101000000000
11111100000000001111110000000001111111101111110100000011111111110000001000000000
00000101111111110000101000000010111111101111111100000100000001000000000100000000
00000001111111000000010000000100000000101111111000000000111110111111110100000000
00000111000000011111101100000001111111001111101111111111111111111111110111111100
00000010000000110000011000001010000010010000000100001000000010010000011000000000
00000000111111010000001000000000111111100000010011111111111110101111100100000000
11111111000000100000000011111110111110101111110111111101111110111111110000000000
11111011000001000000010011111110111110111111101111111010111110110000000000000000
11101110111010111111101011111110111110100000001111111010111110100000000100000000
00000011000010000000010011111101111110010000000011111011111101101111110000000000
00001010000010010000101000000101000010000000100100000101000000110000110000000000
11111100000001000000001011111101111111100000000000000011111111010000000100000000
11111111111111110000010011111111111111110000000100000101000000111111111000000000
00000000111100100000000000000111111111000000010000000110111110000000011000000000
11111011111110111111100011111010111110011111000111111100000000001111110000000000
11111001111110001111101100000001111110101111110100000100000000010000000000000000
00000000000000001111111000000010000000000000000000000011000000110000000000000000
00000100111110111111101011111001111110011111101111111110000000111111111100000000
00001000000001110000010000000110000000011111100011111000111100011111000000000000
11111110000000000000001100000111000001010000011000000101000000010000010011101001
11111101111111111111111111111111111111100000000111111110111111011111110100000000
11111101111111000000000111111011000001000000001111111110000001000000000100000000
11111011000000110000001000000000111111010000010011111111000000011111110100000000
00000000111110100000010000000000111110101111111000000011111111110000001100000000
11111111000001010000010011111101111111101111110011111010000000101111100100000000
11111110000000010000001111111011000000100000010111111100111111110000011100000000
00000111000010110000000111111101000001011111111111111000000000100000001000000000
00000011000000111111110111111101000000110000000100000011111111110000001100000000
00000000111111100000001111111110000000000000000111111100111111001111111100000000
00000000000000111111101100000000111110111111101111111111111111100000001000000000
11111100111111110000000100000001000000111111110011111111000001001111100100000000
00000100000010010000000000000000111111110000000111111100000000100000000100000000
11111111000000100000000100000011000000010000001111111110111111101111111100000000
00000000000000100000010100000100000001111111110111111101000001110000000000000000
00000000111111000000000011111111111111111111111100000010000000000000001000000000
00000011111110101111100100000100111110001111101111111110111111011111100111111110
11111101000001000000000011111110000001101111111000000010000001100000000100000000
11111011000000100000000111111100000000000000000011111100111111011111110000000000
00000000111110101111110000000011000001000000000000000000000000001111101000000000
11111011111111100000000000000000000000101111111011111010111111111111101000000000
11111000111111001111110111111101000000101111110111111110000001000000000000000000
11111000000000110000000100000000000000011111100000000001000001010000000000000000
11111001000001000000001100000000000001010000011000000010000001000000000000000000
00000100000000100000000000000011000000011111110111111111111111010000000000000000
00000001000001000000001000000000000000000000001011111101000000001111111100000000
11111101111111111111101111111101000000100000001000000011000001001111111100000000
11111100111111010000000000000101000000101111110100000010111111000000010000000000
11111111000001001111101100000011000001010000001011111110000001010000010000000000
11111110000000001111111111111101111111011111111011111101111111010000000100000000
11111100111101111111111011111100000000011111101000000000111110101111101100000000
11111010111111001111110100000000000010001111110111111011000001101111101000000000
11111100111110101111110011111110111111000000011000000001000000100000001000000011
00000000111111001111111111111011111111000000010011111111000000000000000000000000
00000000111110101111111111111110111111001111101100000101000000000000001000000000
00000000111110111111110111111111000000101111110011111110000000110000000100000000
00000000111111001111111000000001111111011111100100000000000001100000000100000000
11111110111111101111110111111111000000100000010000000111000001010000000000000000
11111110111111110000010000000000111111111111101000001011000010000000010100000000
11111010111110101111101100000000111110111111111111111000111110001111110000000000
00000000111111101111111000000010000000001111111000000000111111010000000000000000
00000011000000010000000100000000000000011111111111111110111111001111111100000000
11110111111110001111101111111000111110011111101111111100111111011111111000000000
00000010000000110000011000000110000001010000010100001000000001010000101000000000
11111100111110011111100011111001111110111111110011111110111111010000000100000000
11111101000000010000000100000000111111101111110100000010000000111111110000000000
11111010111111011111111100000000111111001111111000000011000000101111111000000000
00000100000000110000010100000011000000010000010111111101000000100000010000000000
00000000111101111111100000000000111110000000000011111111111110001111111000000001
00000010111111001111110100000011000000011111111111111101000001010000000100000000
11111100000000001111110111111100111111101111111100000010111111010000001100000000
00000100111111010000001111111101000001000000000100000010111111011111110100000000
11111111111111010000001111111100000000111111111011111010000000100000000100000000
00000010111110011111110111111111000000000000001011111110000000100000000100000000
11111011000001011111111011111010111111000000000011111011111111001111101000000000
00000001000000000000010111111100111110111111111011111111111111010000000000000000
00000000111111011111111000000011000000011111110100000100000000100000000000000000
00000010000000110000010000000001000001000000000111111101111111111111111000000000
00000000000000010000001011111101000000100000001100000010000001010000100000000000
11111010111110111111100011111101111111011111101111111101111111001111101100000000
00000100000000110000001000000000000000000000011100000100000000000000000100000000
00000100000000011111110100000010000000010000010011111110111111101111111100000000
11111010111111111111101000000001111111001111101100000000000000000000000000000000
00000100000001101111110011111101000000010000001011111111111111001111111000000000
11111010000000100000000000000000000000100000000111111100000001000000001100000011
00000001111111101111110111111110000000010000001011111111000000111111110000000000
11111111111111001111101100000000111111000000000111111011000000011111101000000000
11111011111111100000000100000000000000101111101000000000111111010000000000000000
11110101000001111111111111111000000000000000001111111010000000100000010000000000
00000010111101001111101111111100111101011111110100000010000000110000000000000000
11111101000001101111111111111001111111000000010111111111000000111111110100000000
00001101000010101111111000000111000011001111111100000111000000101111111000000000
00000010000000111111110100000010111111000000000111111111111111011111110100000000
00000010000000001111110011111100000001001111111000000100111111010000001100000000
00000011000000111111110111111011111110101111101011111101111111000000000000000000
00000010111110100000010111111011111111101111111111111111111111010000010100000000
11111100000000101111110011111101111111010000000111111010000001011111110100000000
00000011000000010000010000000000111111100000001011111110111111000000000000000000
11111011111111010000000111111110111110011111111011111011111111000000010100000000
11110111000000001111101111111111000001010000010100000001111111000000010100000000
11111001000011011111111011111010000010111111101011111101000100010000001111110011
00000010111111111111101111111110000000100000000011111111000000010000001100000000
11111111111111101111111000000010111110111111111100000011000001000000001100000000
00000111111111100000000011111111000000110000010000000100000000000000000000000000
00000000111110111111110111111011111110010000000011111101111111001111110100000000
00000001000010000000101111111100000000000000000100000110111110111111100100000000
11111101111111010000010000000001000000000000001100001000111111110000000000000000
11111010111111100000001000000110111111010000000100000111111110011111101100000000
00000000111111011111110000000100111111100000000111111111111111010000000100000000
00000011000000000000001100000001000000111111110011111111000000111111111100000000
11111011000000011111111111111110111111100000000011111101111110001111001000000000
00000010000000010000010011110111111101101111110000000111000010000000011100000000
11111101000001110000010111111111000001000000010100000000111110111111101100000000
11111111111111000000010000000011000000010000000000000000000000010000001000000000
11111111111111110000001011111100111111001111111100000101111110111111110100000000
00000100111111111111111100000000111110111111111100000010111111100000000100000000
11111011111110110000001111111011111111001111110100000000000000000000011000000010
11111100000001001111111100000100111111101111110111111101111111010000010000000000
11111111111111100000000000000110000001000000001011111101111111110000000000000000
00000100000000001111111100000000000001100000001000000010111111100000000100000000
00000011000001000000001000000010000000110000010011111110111101101111110100000000
11111001111111100000000011111110000001010000000111111011111110101111110100000000
00000011000000100000000000000010000001001111111111111111111111111111111100000000
11111010111110001111100111111100000000001111101100000010000000010000010000000000
00000011111111011111111100000011111111011111111100000001000000100000000000000000
11111101111111110000001100000001111111010000000011111101111111100000001100000000
11111100111111100000000111111110111111101111101111110111111110101111100100000000
11111100111110011111110000000010000000001111111100000010111110111111101100000000
11111111000001011111111011111110000000000000001111111101000001110000001000000000
00000001111111111111111000000000111111011111111000000010000000010000010000000000
11111101000001000000001111111111000001000000011111111110111111000000000100000000
11111110000000011111101100000101000001110000010111111110000001110000101000000000
11111101111111011111110100000010000000011111111011111111111110011111100100000001
00000001111111010000010011111111000000010000101000000111111110111111111000000000
11111000111110111111101000000100000010100000010111111110000000100000000100000000
00000010000000101111111100000011111110110000000100000000111111100000000100000000
11111110111101111111110011111101000001100000011111111000111110001111110100000000
00000001111101111111100100000011111111001111110011101111111101000000000100000000
11111110111101101111111000000000000001110000010111111101111111111111101000000000
00000111000000001111101100000001000001010000000111111001000000000000010000000000
00000000000000100000000000000000111111111111110100000011111111110000001100000000
11111111111111001111110111111111000001000000001100000000000000001111111000000000
00000010111110001111011000000111111110110000001011110010111101000000000000000000
00001010000001011111111100000000111110111111111111110111111110001111100000000000
00000101000000011111110000001001000001010000000111111110111111100000001000000000
00000001111111011111111111111101000000101111111100000000000000100000010000000000
11111101111111101111111111111011111111111111101011111110111111011111101000000000
11111001111111111111111100000011000000110000111000000101000001110000010000000000
00000000111111000000011000001101000001110000101100000100111110101111100111110101
00000000000000101111111100000001000000111111110111111110111111000000000100000000
11111100111111100000000111111111111111110000001011111101000000110000000000000000
11111100111111110000010011111011111111110000001111111100000000110000001100000000
11111110111110111111111100000000111110101111110011111011111110110000000100000000
00000100000001000000001011111101000000000000001011111101111111000000000000000000
11111010000000001111101011111011000000001111110111111110000000010000000000000000
11111110111111110000001011111110000000110000000011111101000001011111111100000000
00000011000000011111110111111110111111000000001100000010000000011111111000000000
11111111111111101111110100000000000000111111110011111101000000110000001100000000
11111111000000010000000100000011111111011111110000000000111111001111111000000000
11111110000000110000010000000010000001000000001111111101000001011111100000000000
00000010000000011111110000000000111111010000010011111100000000000000010100000000
00000011111111010000000000000011111111101111110100000010000000101111111000000000
00000011111111000000010111111011000000001111111111111010000000010000000000000000
11111110000000001111111111111111000001010000010000000000111111110000001100000000
11111101000000100000001011111110111110000000001111111011111111001111110011111111
00000000000001000000000000000010000001000000011000000001000000100000011000000000
00000000111111111111111011111010111111010000001111111111000000011111101100000000
11111100111110011111101000000001000001001111111100000011000000010000001000000000
11110011111011101111000000000101111111000000000000001010000001100000011100000000
11111000111111101111110100000001000000100000010011111111111110110000001000000000
11111100111110101111010100000100111111110000010000000110111111110000000000000000
11111101111110011111111000000000111111011111110011111100111101011111100000000000
11111100000000110000001100000010000000111111111011111110000000111111110100000000
00000010000000011111110111111100000000101111110100000100000000100000001000000000
11110100111100101111111100000011000000010000001100001010000010100000100000000000
11111001111110101111101000000111111111110000001100000000111111001111111100000000
00000000111111110000011000000110000000110000101100000011000001000000101100000000
11111111111111001111111100000000111111000000010000000011000000100000010000000000
11110100111110011111011100000100000000000000011011111110111111001111101000000000
11111110111110101111100111111010111110101111101111111111000000000000001100000000
11111110000000001111100000000001111110000000000100000000000000001111110000001011
00000000111110110000001100000101111110100000010100000000000000100000011000000000
11111110111111000000000011111100111110110000000000000110000000100000100000000000
11111101000001010000001000000100111111111111111111111111000000010000000000000000
11111100000010110000011011111100000010110000000011110111111111011111101100000000
00000001000010001111111011111101000000001111100100000001111111010000100100000000
11111001000000101111101111111110000000101111111111111111111111110000001100000000
11111101111110001111101100000000111110011111110011111101111111010000001100000000
11111110111111110000001000000011111111011111111111111100111111100000010000000000
11111110111111110000001111111111000000011111111100000010000000101111111100000000
00000000111111111111100111111110000001101111111011111000111111011111111100000000
11111110000011010000001111111100000000111111110111111000111110011111101100000000
11111111000001101111110011111011000000011111110011110100000000011111100100000000
00000010000000101111110100000010111111011111111100000011111111111111110000000000
00000111000011110000010100000000000000000000010011111110111111000000010000000000
11111010111110011111101111111001111111101111111000000010000000100000010000000000
00000011111111001111100000000101111111101111111100000010111111011111100000000010
