1111101111110001111111001111100000000000
0000000111111010111111100000000100000000
1111111100000001000001101111111100000000
0000100111100101111101001111000000000000
1111111100000000000000111111100100000000
0000111111110001000001111111000100000000
0000000100001101000001101111011100000000
0001100000000010000011001111100111100100
0001000100000001000001100001010000000000
1111101100001000000010000000000100000000
0000010100000000000000101111110100000000
0000011100000000111110011111111000000000
0000010100000111111111101111100000000000
0000110000000010111100101111111000000000
1111110000000001111110101111010000000000
0000000000000110111100011111001111111001
0000100111110101111100101110110100000000
0000000011111000000001001111111000000000
0000000100010011000000000000011100000000
0000100111110010000000000000110000000000
0000010000000010000001100000010100000000
1111101111101001111101110000011000000000
0000100100010101000001011111111100000000
0000000111111000111100000000010100001101
0000011000000000111111011111010000000000
1111111000000000111110100000100100000000
1111101000000101000001010000010100000000
0000001111111010111110110000010100000000
0000011111111110111110000000100000000000
0000010000001001111110110000000000000000
1111101000000001111100101111110000000000
0001001000000101000011000000100011101100
1111001011110100000001000000101100000000
0000011011111011111110111111011100000000
1111101111111011111110011111100100000000
1111111011110010000010100000110100000000
1111100100001000000001110000100000000000
1110100111110100000010110001011100000000
1111110111111011000000001111110000000000
1111011011111010111111110001010000011001
1111111100001001000011110001010000000000
0000011000000011111110100000100000000000
1111110011111111111110101111110000000000
1111100000000010111111011111110100000000
0000100100001011000001011111011100000000
1111100000001010111111011111110000000000
1111110111111001111110011111011100000000
0000001000001010000001111111111111101111
1111010000001001111111011111111100000000
1111110000000111000010000000100000000000
1111110000000111111111001111111000000000
1110101000010110111110010001001000000000
0000100000011010000010010000101000000000
1110010000011010111011100000011100000000
1111101011111110111110001111101000000000
1110100000001100111010100000010111111101
1111110000000010000000010000011100000000
0000001000000001000000110000001100000000
0000100111111000111110010000001100000000
1111100100000001000000110000011000000000
1111110011111010000000010000001000000000
0000000000000001000001001111110100000000
0000011111111101111111011111100000000000
0000000011110111111101111111100100000000
1111100011111011000000111111101000000000
1111100011111001111110101111111000000000
1111101100000111111110100000010000000000
1111101000000110111101111111101000000000
1111100011111000000001000000001100000000
0000010011111010111111101111100100000000
0000011100000100000000000000100000000000
0000100011111001000001011111100000000000
1110110111110100111111001111000100000000
1111111011111011111111110000010100000000
1111011011111011000001110000000100000000
0000010100000111111111110001000000000000
1111111011110110000000100000010100000000
0000011000001001000010000000011000000000
1110110111110111111010101111100100000000
1111010111111100111110100000010100011101
0000111000001101111111011111111000000000
1111110100000100111111101111110000000000
0000101111111011111101011110111000000000
1111101111111000111110010000011100000000
0000001000001010000000100000001000000000
1111100111101111000000100000110100000000
0000000100001011000111010010010000000000
0000101011110011000000000000010100000000
0000000011111101000001001111101000000000
1111111011111111000001001111101100000000
1111110011111010111111001111110000000000
0000101100001110000001000000111000000000
1111100100000100111111110000011100000000
1111111000000010111000101110110000000000
1111011011111000111110011111110100000000
0000001011110110111011001111100001000010
1111110011111011111110101111100100000000
0000001111111000000001010000001100000000
1111101011111001000001110000001000000000
1111110011111101111111100000011100000000
0000001011110111111110011111111000000000
1111011111111101000000111111110000000000
0000000011111110000000111111101100000000
0000000000000110111111111111111100000000
1111000011111001111101111111011000000000
0000000000000101000001101111101000000000
0000100100001000111111010000101000000000
1111011111110010000001100000011100000000
1111101000000000000010010000000100000000
1110111111110101111111010001000000000000
0001101100001110000101010000110000000000
0000101111111000111101000001001100001000
1111101100010010111111111111010100000000
1111111011111001111101110000010000000000
0000001000001000000000000000001100000000
0000011100011000111111011110100100000000
0001000100000111111101001111001100000000
0000001100011010111111101110000000000000
1111010011111111000011010001101000000000
1111111100011011111111101110011111111000
1111101011111101111100101111001000000000
0000001111111110000000010000010000000000
1111111100000001000001010000010000000000
0000110011110001000011101110011100000000
0000001111101111000001101111010100000000
0000111111101100000011011110111100000000
0000000111110010000010111111110000000000
0001000011110001000111000000110100001011
