11111110
11111011
00000010
11111100
11101100
11111110
00000011
00000000
11111110
11110111
11111000
11111100
11111111
11110101
00000100
11111100
11111101
00000001
11001111
00000100
11111000
00000001
00010101
00001001
00001000
00000001
11111111
11111100
00000000
11111000
00000000
11111110
