00000100
00000000
00000010
00000001
00000000
11111111
00000000
00000111
00000000
00000000
11111111
00000110
00000000
11111001
00000000
00000000
00000000
00000000
00000000
00000010
00000000
00000100
00000000
00000000
00000000
00000000
00000100
00000000
00000000
00001000
00000000
00000000
00000101
00000000
00000000
00001000
00001100
00000000
00000000
00000010
00000101
00000000
00000000
00001100
00000000
00000000
11111111
00000000
00000000
00000010
00000000
00000000
00000101
00000000
00000011
00000000
11111111
11111011
00000000
00000000
00000000
00000000
00000001
00000010
