00001101
00000001
00001100
00010011
00000000
11111111
00000000
00011101
00000000
11111111
00000010
00011001
00000000
11111000
00000000
11111111
00000000
00000000
00000000
00010000
00000000
00010000
00000000
00000000
00000000
00000000
00010011
00000010
00000000
00100010
00000000
00000000
00010111
00000000
00000000
00100000
00110011
00000000
00000000
00001100
00010110
00000000
00000101
00101110
00000000
00000001
00000000
00000000
00000000
00010101
00000000
00000001
00011000
00000000
00001010
11111111
00000100
11111011
00000001
00000000
00000000
00000000
00000011
00001010
11111000
00000000
11111011
00010100
00000000
00001001
11111111
11101110
00000000
00000000
00010000
11110001
00000000
01000110
00000001
00000011
00000000
11111111
00000000
11111101
00000000
11110111
00000000
00000000
00000000
00000000
11110101
11111111
00000000
11101110
00000000
00000000
11110011
00000000
00000000
11101110
11100010
11111111
00000000
11111001
11110101
00000001
00001001
11100100
00000000
11111111
00001000
00000000
00000000
00001000
00000000
11111111
11110101
11111111
11111010
00000000
00001111
00110000
00000000
00000000
00000010
00000000
11111110
11111011
