111111110000001100000010000000101111110011111101000000110000001011111100
000000101111110011111110000000000000000111111111111111011111110111111101
111110111111111111111101111111101111111111111100000000010000001000000101
111111110000001100000010000000001111111011111101000000010000000000000010
111111011111110111111111000001101111111100000001000000110000001000000000
000000100000000100000001000000001111101111111111111111100000000011111101
000000110000001100000001000000000000010011111101111111100000010000000011
000001001111110111111100111111111111111111111101000001000000000100000101
000000001111101111111101000001010000000111111100111111101111110011111111
000000010000001000000100000001100000000111111110111111010000010000000101
000000001111111100000001111111101111111011111100111111111111111011111110
000000000000010000000011000000011111110111111101111110110000000111111001
000000001111110100000000000000001111111111111011111111001111111000000010
111111101111111111111111111111000000000011111111000000001111111011111111
000001000000000011111110000000000000000000000100111111010000010000000100
111111110000001000000010111111011111111000000011111110111111111011111111
111111101111101111111100000000010000010000000100000000110000011011111111
111111011111110011111100000000111111110111111110000000011111111100000010
000000001111111000000001111111001111110100000010000000010000000011111111
111111011111101011111111000000011111110011111110111110111111111000000000
000000000000011011111010111111101111110011111110000000000000000111111110
000001000000000000000000111110001111111011111111111110110000001000000101
000000110000000011111110111111110000000011111111000000000000000111111111
000000110000001000000000111111011111111000000001111111010000001000000100
000000110000001100000000111111110000001000000000111110111111111011111110
000000100000100111111101000000011111110111111101000001011111111111111110
000001011111110011111111000000000000000100000101000000010000101000001010
000001010000001011111110000000101111110000000010000001010000000111111010
111111110000001100000000111111101111101011111110111111111111101000000010
111110111111110000000001111110110000000100000001111111111111110100000010
000000011111110111111110000000001111111011111111000000101111111011111111
000001011111110111111110000000001111100111111011111111110000000011111110
111111010000001100000001000000000000000011111101111111011111111000000000
000000001111110011111111111111011111111000000000000001001111110000000010
111111011111111011111010111111011111110000000001000000110000000111111110
111111111111111000000010000000010000010000000001000000110000000111111100
111111100000000100000100111111110000010011111110111111010000000011111110
111111010000001000000101111111000000001111111111111111010000000111111100
000000111111110011111111000000101111111111111101000000011111111111111100
000000100000010000000010000000100000001011111100111110111111111100000010
111111110000000000000011000000000000000011111101111111011111111000000000
111111011111111000000010000000001111111100000000111111001111110100000001
000000010000001111111110111110010000001111111111111111100000000000000001
000000000000010100000010111111101111111100000010111111010000001011111110
111111100000000100000000000000001111111100000010111111010000001100000001
111111011111110100000001111111100000000111111111000000011111110111111111
111111100000001100000100000000000000000100000000111111110000001011111101
111111110000010100000101111111111111111100000101000000001111101111111111
111111110000001011111101111101101111001111110110000001000000010100000000
000000100000000011111101111111111111110100000000000001001111110000000000
000000011111110000000011000000000000010100000100000000001111111100000000
111111110000000111111101111110101111110111111100111110011111101000000000
111111100000000000000010000000010000000000000000111111011111101100000010
111110001111101011111010000001001111111011111100111111001111101000000000
000000100000010000000011000001001111111000000010000000110000000100000000
000000001111110100000100111111100000011000000010000001110000010100000111
111110111111011111111101111110111111111011111110000000011111110011111010
000000010000001011111101111111001111100000000001000000100000101100010001
111110111111101111111000000000110000010100000001000010110000100000001000
111111011111110011111001000010010000010100000110111111001111101000000001
111111101111110011111110000001011111111111111110111111110000001111111110
000000010000001000000010000001010000001000000101000001000000100000000110
111111000000001000000011000000111111110111111111000000100000001011111110
111111010000000100000000000000100000001000000010111110110000000111111101
111110100000110111111101000001001111111011111010000010111111010111111110
000000000000010000000001000000001111110111111111111111111111110011111100
111111111111111100001001111111100000101100000101000001000000001111110011
111111110000101100000110000001010000001011111110000000100000000100000100
111111110000001000001100000011011111110100000010000000011111110111110101
000001010000001000000100111110101111101011111011111110101111110011110101
000010001111110011111110111111011111100111111011111110101111110000000000
111100100000100100001111111111110000001011111101000000110000000011111010
111101011111110100000011111100111110111011111000111110100000000011111100
111111001111110111111011000001100000001100000100111110011111011111110110
111110111111011111111001111101101111010011110101000001010000011100000100
000000110000100100000011000001011111100011111101000000011111101111111101
111111110000000000000111111110010000010100001000000000101111010011110010
111110001111111000000011111101110000000000000110000000101111101111111110
111111110000001000000010111111001111111100000000000000101111111111111110
000000100000001100000010000010001111010111111011000000011111111111111000
000000101111110100000010000000100000001100000100000000000000010111111111
111111010000000011111110000000010000001111111100111111101111111000000010
111111110000010000000100111110110000010100000011000000001111111011111001
111111101111111111111110111111111111111011111111111111011111110000000000
111110111111110000000000000000001111101111111010000001101111101011111101
111110011111000111111010111111000000000000000011111111110000001011111001
111111010000001000000010111111100000001100000010111111101111110111111110
111110101111101000000110000000011111110111111001000001100000011000000100
000000000000000011110111000000010000011000000000111111010000001100001000
000000001111101111111101000000100000001011111011000001111111011111111011
000000101111101111111011111110101111001111110111111111101111111000000100
000001010000000000000001000000011111111011111010000001101111111011111101
000001011111111100000000000000100000000100001010111111011111100011111111
111111001111101000000011111111111111111100000100000000110000000011111111
111111011111101111111100111111010000000011111101000000100000001100000011
111111101111110100000000111111011111001111111010000001011111010011111101
111111100000001011111100111110101111111111111100000000101111111111111101
111111111111111100000010111111110000000111111101111111000000001011111110
000000111111111111111110111111110000001100000011111111101111111011111101
111111111111111000000000111111001111111111111101000000101111110011111101
000001000000001000000001000001110000000011111111111111100000001100000010
000000000000000000000010000000001111110000000101111110110000001111111101
111111110000001111111110111111010000001111111111000000111111111000000101
111111110000001011111101000000110000000000000110000000011111111100000011
111111101111110000000110111111101111110111111010000000001111110000000011
000000001111110000000000000001001111110011111100000000001111111100000000
000000101111101011111100111111000000001000000001000000101111110100000011
111111100000000000000011000000000000000111111111111111010000000111111010
000001000000001011111100000000111111111000000011111111010000001000000001
000001000000001011111010000000110000001000000001111111111111110100000000
000000110000010011111110111111110000000111111111000000100000000011111111
000000100000001000000010111111010000010000000001000000001111110000000010
111111011111101100000101000000001111101111111101111111010000010111111101
000001001111110000000001111111011111111111111111111111100000010000000001
111111001111111111111101111111101111110111111110111111101111111100000100
000000011111110100000010000000001111111100000100000000101111111011111110
000000010000000011111101111110110000100111111100111111100000000011111101
111111000000001011111111111111101111110111111101000001001111100011111111
111111010000001000000001111111001111110011111100111111101111110100000001
111111101111111111111110000000010000001011111110111111110000001000000001
000011001111010011111111000001101111110011111111111110100000000100000001
000000100000001100000010111111010000010100000000000000011111111011111101
000001101111111111111110000010011111100111111001000010011111101100000000
000000010000001100000010111110010000001100000011111111100000000000000011
000001101111100100000011000000010000000111111100111110110000011111111010
111111001111111011111100111110000000010011111101111111110000011000000101
111111001111110000000001111111010000001100000000111111000000001111111111
000000100000001011111010111110010000101111110101111111100000001111111100
000000100000000111111111111111010000001100000001111111110000001100000001
000000110000000011111101111111111111111000000011111111100000000000000010
000000100000001111111101111111011111111011111111000000100000000000000011
111111110000000100000010111111110000001111111100000000110000000000000011
000000111111111111111100111111111111111000000011000000000000000111111110
000000110000000000000010000000010000001100000100000000001111101100000000
111111111111111100000001111111111111110000000011000000110000000000000000
000000111111111111111110000001000000010000000011000000000000000111111100
000001011111111100000001000000011111110100000001111110111111101011111001
000000011111110111111111111111111111101111111110000000000000000000000010
111110110000000100000010000000010000000111111110111111000000000111111011
000000110000000011111011000000111111110100000100111111100000001100000011
000000001111111000000010000000000000000011111111111111111111101100000010
111111011111111100000010000000000000000111111110111111011111110100000010
000000101111111100000010000000100000000100000001111111101111110100000001
111111110000001111111111000000110000001111111111000000100000000111111110
000001011111100100001101111111110000010000000101000000111111110011110100
000000111111111000000001000000000000001111111101111111111111110011111100
000001001111110111111100111111110000100000000101000000000000001011110101
111111001111101000000010000000101111110111111110000000111111100011111011
000000010000000111111001000010010001000011110111111110110000111100000011
111111000000001100001110111100111111110000000111111011111111000011101110
111111110000010000000110111110011111110011111011111101111111110111111110
111111100000000000000010111111111111111111110101000100001111101011111110
000000011111110100000000111111011111011000000010111111111110110100000000
111111101111111111111000111111001111100111110001000000110000110000001001
111110101111010011111101111101111111010111110101111111111111011111110110
000001100000011011111010000001101111111100000010111111100000011100000100
111111011111111011111010111111111111101011111110000010100000000111110000
000001110000000111111001000010001111101100000000000101000000101111111111
111111010000010000000001000000100000000011111011111111011111111000000010
000000110000010011110011000011001111111111110011111111110000111000000110
000000010000001011111011111111101111101000000110111111101111111111111001
000000011111111111111101111111101111110011111101111111010000001000000011
000000010000000100001010111111110000001100001010111110100000000111111011
000000000000010000000000000000011111111011111101111110101111101000000001
111110110000000100000000000000111111111000000110000010001111001011110111
111110001111000011110110111110010000000100000101000010010000100000000010
111111010000000111111010000010000000001000000000111111011111111011111100
111110010000001000000011000000100000010100000001111101100000000111111011
000001001111100000000100111101110000001011111110000000000000101111111110
111111001111101011110110000000011111111111111111000001001111010011111001
000010100000100100001001000000011111110100001010111111101111111000000010
000001010000001100000011000001001111111011111110000001011111000111110100
000010100000100100000011111111000000011000000001000000011111101100000000
111110110000011100001000111111100000110000001001111110001111111011111011
000000111111110100000000000000100000000100000001111111011111111111111111
111111111111111111111001000001001111100111111101111111011110110011110100
111110111111111000000000111110111111111011111100111101010000000000000001
111111110000001011111111111110110000010100000011111111100000001111111110
000000111111011100000010000000011111111100001000111110011111100100001010
111110100000001011111100000001001111101011111100111111011111110011111110
111100101111011000000000111011011111001000001001000010100000010111110001
000011000000001011111101111111110000000111111100111011010000011000001101
000000010000000100000000111111111111101111111011111111111111101011111011
111111001111100111111100111100001111010000000001111110111111101000001101
000001110000001100000101000001110000000011111110111110101111010111110111
111101111111010000000011111100111110111000000000000011100000110111110111
000011111111110011111110111101011111100011111111111100001111001000001111
000000110000000100001011111111101111101000000100000000000000010111101110
111110000000100000000011111101001111101000000000111100101111010100001010
111101101111001100000011111110001111000111111111111101001111001100000110
111111110000001111111110000000110000001111111111000000000000000100000001
111101011111111100001011111111010000000100001000001001100000010011101111
111111010000000011111110000000111111111000000010111111101111111111111011
111111100000000100000100000000100000010011111101000000000000010000000011
111111110000000100000010111111010000001011111110000000100000001111111100
000000010000000000000011000000111111110011111111111111110000000111111100
000001100000000100000100000001000000010000000000000000110000000100000101
000000110000010100001000000000001111110111111101111111111111110011111110
000000100000010111111110111111111111101111111101000000101111111111111100
111111111111110011111100000000110000010000000110111110111111111011111101
000001110000000000000011000000000000000011111100111110010000000011111110
000001010000011000000111111110111111110100000010000000001111110100000010
111111110000010000000011111111101111110111111101111111101111101100000000
000000000000000011111110000000011111110100000100000000111111111111111110
000000001111110111111101111111101111110111111110000000000000001100000001
000000000000000100000000000000110000010100000011111110111111111000000011
000000101111111011111101111111011111111111111110000000101111110000000000
000001010000010011111100000000001111110111111111111110101111101100000000
000000010000011000000000000000010000000111111111000001010000010000000000
000001000000000011111110111111101111111000000011000000111111110000000001
111111001111111100000011111101111111011111111100111110110000010000000011
000000111111110000000001111111101111101111111011000000101111100111111101
111110100000001100000011111100101111101100000110000001000000000111111010
111110001111011000001010111110011111001111111101000000000000001111111100
111111111111111000000000111111101111101011110111111111111111110111111100
111101011111110100000010111110001111111100000101111111000000000000000110
000001100000000111111010111110011111011011111000111101001111110100000110
111111000000000111111011111110001111100111110101111110111111101011111001
111111101111100011111000111111001111101111110010000011000000011000010000
000001110000010000001110000000011111100111111111000010011111110011111011
111111011111111111111101111110101111111111111110111111001111111100000111
111100101111011100000111111100011111110000001001111110101111110100000111
000000101111110111111111111111110000001011111100000000011111110100000010
111110100000100100000110111111101111101100000101000010111111010000000000
111111010000001011111110111111001111111011111101111111010000000100000010
000000110000010011111110111111001111111111111100111111100000010000000011
000000000000001100000100111111111111101111111101000000111111111100000101
111111111111111100000100111111101111111111111110000000001111111100000011
000001000000001011111110000000011111110000000000000001011111111000000001
000010000000000100000001111110111111110011111100111111111111111000000000
111111110000000100000000000000100000001011111100000000111111110000000011
111111100000001100000010111111100000010100000100111111111111111011111000
111111110000001111111101111111010000000111111100111111111111100111111010
000001001111111000000000000000000000000111111110111110110000000100000000
000000110000000011111100000000100000001011111100000000010000000011111110
000001110000010111111111000000000000001011111100000000110000001100000011
000000000000000111111101111111101111101111111110000000000000000111111111
000001001111111100000110000000010000010000000101000000010000000011111101
000000111111110000000100000000101111110011111101111111001111111100000100
111111110000000000000010000000000000001011111011111111011111111011111100
000000000000001100000011111111100000010000000000111111111111111111111110
111111000000001111111110111111101111110111111111111111000000000100000010
000000001111110111111110000000110000000011111110000000010000000100000011
111111101111111111111111000000111111111100000001000000000000001000000010
111111110000001100000001111111110000010100000001111111010000000100000001
111111111111110100000000111111101111111111111111111111011111111011111101
000000111111110100000100000001001111111000000010000000110000000100000000
000000110000000100000010111111101111110100000001111111111111101111111100
000000001111110100000111111111111111111100000011111111000000000000000011
000000111111111000000010111111011111110011111010111111011111101100000000
000000100000000000000011111111111111111011111111000000010000000100000010
111111100000000011111101000001010000001011111110000000111111110000000011
111111010000001000000001111111000000000100000000000000011111111000000011
000000101111110100000001111111011111110000000010000000000000001011111101
111111001111111000000010111111000000001000000000111111111111111011111101
111111010000000000000001000000100000000100000001111111111111101100000010
000000110000011011111110000001001111110111111011000000011111101100000000
111111011111111000000011000000000000001111111110000001000000001000000000
111111010000100000000110000000010000001011111001000000111111101111111101
000000000000000100000011111111010000000111111101111111111111101100000001
111111111111110011111100111111101111101111111101111111111111101111111011
111110110000000111111111111111011111110011111111000001101111110100000011
111111100000001111111110000000010000001000000011111111111111110111111101
000001100000010100000011000000101111110111111110111111101111111111111111
000001100000000000000000000001011111101111111110000000000000001000000011
000000101111111100000000000000011111101011111001111111101111101111111111
111110110000000100000011000000100000000000000011000000000000000100000101
000000101111101011111101111111110000000111111101000000101111101100000000
000000010000000000000000000000011111110100000011000000011111111000000010
111111100000011000000101000000001111110100000001111111111111111111111100
111111000000010000000001000000100000001111111111111111100000010000000000
111111111111101011111110111111101111111011111011111111101111101011111110
000000011111111100000000000000101111111100000010000000000000001011111111
000000010000001011111100000000000000000000000001000000100000001000000100
000000011111101111111110000000100000000111111100111111010000001011111110
000000010000000100000011111111111111110100000100111111111111111011111101
111111001111111000000001111111110000000011111110111111110000000011111101
111111101111111000000010000000001111101011111111000000000000001111111110
000000011111110100000001111111101111111111111110000000010000001000000000
111111111111111011111101111111100000001011111101111111110000000100000010
000000100000000011111110111111111111110000000000000000110000000000000001
000001000000000111111111000000010000000100000001000000100000001100000010
000000011111111111111101000001100000000111111011000000110000001100000100
000000010000000100000001111111010000000000000000111111010000001000000010
111111001111110100000010111111001111111011111111000001011111111000000100
111111110000000100000010000000001111110011111110000001010000001111111111
111111011111110100000100000000111111111000000010000000011111111000000011
111111010000000011111110000001101111111011111101000001111111101100000001
000000100000011000000101000000010000101000000111111110111111100100000101
111111111111111111111101000000001111111111111101111111110000001111111100
111100111111101111111001111101101111100011111101111111001111011100000000
000010010000001000000110000000110000000111111110000000010000011100000000
000000011111110111111111000100000000000000000000000010110000011100000000
000000101111101000000001111110000000111100001101111101101111001111111100
000000011111101111111100000000000000001011111111000000111111110000000001
111110011111010111110011111110011111001011111110111110111111001111111001
000001010000101000000001000010000000101011111100000000011111010111111101
111110110000000000000000111010111111000000010100000001111111110011111101
000000100000100100000100111110110000000000000001111101101111001011111111
000000100000100100000011000011010000111011111010111111000000000011110101
111111011111101011111111111111101111101111111011111110011111110011111110
000001110000011111111101000000010000100011111100111111001111100111110100
000000111111110111111111111111101111111011111101000000001111111011111110
000001000000101111111100000010100000110011111011111111111111101111110100
000000110000000000000100111110101111101111111101000000110000010000000101
000001001111111011111101000000010000001100000010000000101111111100000001
111111110000010111111011000001100000010100001010111111010000010000000001
000001001111110011111110000001010000000111111110111111111111111000000010
111111011111110011111110000000101111111011111101000000110000010011111101
000000000000010100000011111110101111110111111010111111100000010011111100
111111000000001011111111000000101111110111111101000000110000000011111110
000001000000010100000100000000010000000100000011111111011111111111111101
111111010000011000000111111111010000001100000010111111100000001000000001
111111110000000111111001111111110000000011111011111101111111110111110011
111111100000010011111001111111000000011000000010000000110000100000000001
111111000000000100000110111110000000000011111111000001000000001011111110
000000110000001100000011000000010000000000000101000001000000000011111111
000001010000001100000010000001100000011000000100000000010000001100000001
000001000000000100000010000001000000010011111110111111111111111100000001
111111101111110000000101111111111111111000000001000001101111111000000110
000001010000011100000001000001010000001000000001111111111111111000000010
111111100000000000000100000000111111110111111110111111000000001000000001
111111010000000100000100111111110000000011111010111111110000001000000001
000000100000001111111111000001000000001000000010111110111111111111111111
000000100000001000000001000000001111111111111100000001100000010000000000
111111110000000011111101111111110000001111111100111110110000011011111000
000000110000001011111111111111011111101000000011000000010000000011111100
000000100000010100000001111111110000000011111110111111100000100100000101
111111111111110111111111111110101111111011111100111111010000001111111011
111111010000001111111010000001011111100111111010000000010000001011111010
111111001111101111111010111111001111101011111000000000100000000000001100
000000000000000011111100000001101111111011111101000000001111100111111011
000000111111110100000010000000011111110011111010111111011111100111111011
111111111111110100000010111111001111101111111101000001100000000111111100
111111101111111011111111000000000000001111111111000000101111110111111101
000000011111110111111111000001011111100111111101000000110000000111111111
111111100000010000000010111111100000000111111110000000110000000000000101
111111100000000111111110111111100000001100000000000000000000000000000011
000001011111111000000011000001010000001111111111000001001111111000000011
000001000000000111111101000000101111101100000001000000000000000000000011
111110110000000011111111000000001111111011111100111111101111111100000101
000001110000001011110110111111110000000011110110000010000000001111111101
111111100000001011111100000000001111110011111101000000011111110100000100
111111111111101111111110000001101111110100000101111111100000000111111001
111101110000000011111110111110000000001111111111111110000000010000000000
111111010000000111111110111111110000010111111100111110101111101111111110
111111111111100011111011000001000000001111111101000001111111110011111100
000001010000001100000100000000111111111100000011000001110000010011111101
111110111111110000001000000000001111111100000100111111010000001000000010
000000111111101111111100000001100000001100000100000001100000010111111100
000000011111111011111100000000110000001100000101111111110000000011111101
000001100000000000000001000000011111101111111101000010010000010000001000
000000100000010111111110111110111111111111111100111111001111110100000000
000000110000001100000011111111001111110011111110000000010000000111111100
000000000000001011111111111110110000010100001001000001000000001000000111
000000000000001011111111000000000000000100000010111110001111110100000011
111101011111101011111001000000101111101100000001111111101111110011111011
111111011111101011111111000001011111110000001001111100101111010111111001
111111011111110100000010111111111111101100000100000000110000000100000001
000000011111111100000010000001010000010000000101000000100000000100001100
111111011111110111111011000001010000000011111111111111001111110011110011
000000001111101000000000000000101110111100010010000000001111110000000011
111110111111100011111101111111010000010100000000000010010000011000000101
111111011111010111110011000001100000001000000111111111001111101011111011
111111001111111000000001111111000000010000000110111111101111111100000000
111111111111100100000011000000011111111100000010000001101111111000000101
000000001111110011111110111111111111111011111101000000001111110011111111
111101001111100011111100111110100000010000000111111101111111101011111011
000001000000010100000001111111111111101111111101000000100000101111111111
111111011111110100000000000000000000000011111101000000111111110111111110
111111001111111111111100000010010000000000001001111110100000001100000011
000000101111101011111111111111100000001100000001000000010000001111111110
000000001111101111111111111110111111111111111010000001000000001000000010
000010100000111111111010111110011111101011111010000000100000000111111010
111111010000010000000001000001001111111111111101111111001111111000000010
000000110000000100000101000001011111110100000011111111111111110111111001
000001000000001000001101111111011111111111111001000000000000001111111111
000000000000010011111111111111010000011011111100111110101111101111111010
111110101111111111111001000000100000010000000000000000010000011111111101
000000100000001100000100111111110000011011111100000000110000000000000011
000001000000000000000011000000110000010000000100111111111111111011111111
000000000000000111111110000000110000010011111111111110100000010111111100
000001001111110111111110000000100000001111111101000000011111110100000000
000000111111111100000111000000101111111011111111000000011111110100000111
000000011111111111111111111111010000000111111110111111000000010011111110
111111001111110100000010000000101111110100000000111111100000000100000100
000000010000000100000010000000001111111100000000000000110000000000000000
000001101111101011111110000001011111101011111110000000101111111011111100
000000110000010100001001000001100000010011111110000001101111111100000100
000011100000111100001011111111001111101111111100111111010000000111111100
111111110000001100000000000000011111110111111010000000010000000011111111
000000110000000000000001000001010000000000000001111101110000000011111011
111111100000000100000110111110001111011011110110111101001111101011110111
000000000000100100000011111110010000010000000010000000100000000100000011
111101100000000111111101111110100000001111111010111101110000010011111010
000011010000100000000011000000010000001000000011000001001111101111111011
000000001111111111111110000000011111111100000000111111101111110000000010
000001000000000011111101111111100000010000000100111110001111111011111101
111111111111111000000001000000100000000100000000000000011111111111111110
000001100000101100000111000000001111111011111111111110101111101011111010
000001000000000100000011111110110000000100000100000000100000000000001011
111111111111110100000100000000101111111011111110000001001111111000000100
111111010000100000000001000000010000011100000110111111010000010000000010
111111111111110100000100111111101111101100000001000000000000001000000100
000001000000000011111011111111001111110100000001111110100000001000000001
111110000000001111111110111111000000000000000000111111100000100000000000
111111011111111100000000111111101111111111111111000000001111111111111101
000000000000000100000111111111010000000000000000111111110000000111111011
000000010000010111111111000000000000001100000001000000000000011100000001
111110000000000111111110111110010000011011111001111110001111111111111000
111111100000001100000000111111011111111111111100000000110000100100000010
111111010000000011111100111111000000001100000000111110100000010011111011
111111100000000100000011000001000000100100000101000001011111111000000000
111111110000000100001001111111110000010100000010111111100000001011111101
000000001111111011111111000000001111111111111100000000110000001100000010
000001000000001111111110000001110000000111111101000000110000100111111110
000000110000010000000101111111001111111111111101000001001111110011111011
000000001111111011111110000000100000000100000100111111011111110000000001
000001100000011011111101000000101111110011111000000001011111111111111010
111111101111101111111010111111011111110111111100000000100000000111111110
111111111111100111111010000000111111101100000001111110111111101011111111
111111011111111000001111111110011111110100000010000001111111110011111011
000010000000100100001001000000101111100000000010000000101111101100000001
111110001111110011111101000001010000000111111010000011000000010100000100
000000011111111111111110111111001111111111111011111111010000110100000010
000000001111110000000011111110111111101111111101111111100000001100000001
111110011111111000001010111110011111101100000001000000100000001111110110
111111011111101111111111000000001111110111111111111110101111011000000110
000000100000000111111110000000001111101111111000111111101111111100000010
000001000000000011111011111110101111101111111101111111011111110111111100
000000111111111111111111000000101111111100000001111111010000000100000010
111110001111100111111101111111101111110000000001111111011111100100001101
111111110000100011111110000000110000010000000001111110101111011111111010
111111110000001111111101000000000000000100000000111111011111110111111101
111111100000010000000111111110101111010111111011111110101111111011111001
000000010000101000000010000000101111111011111111111111111111110011111110
000000000000010011111101000011101111111000000011111110101111111111111010
111111111111111011111100111110111111110000001101111110011111101111110101
000001000000010100000001111111100000000111111101000000000000000100000010
111110001111010111111000111110001111011000000001111111001111101011111010
000000110000010011111100000001111111111111111111111111011111100011111000
000001010000011000000010111101101110100000001111000000000000000011111100
111100111111100011111111000000000000000000000111111111101111110111111001
000000100000011100000010000000110000011100000011111100101111110111111011
111111000000000100000010111110011111010111111010111110011111110011111011
000001100000010011111111111110001111101111111011111111011111011111110101
000000000000001111111101000000000000001111111111000000000000001100000010
111111010000001100000100111111110000001100001011111100101111100011110010
111110111111100111111101000000110000111011111111000000001111101100000001
111111001111110100000010000000010000001100000011111111000000000111111100
000000101111100000000000111111111111110100000111000000010000011000000011
111111111111111011111100000000001111111111111100000000000000000000000001
111110100000000100000101111111111111111011111110000000000000000011111010
000000000000000011110010111101010000011000000101111110110000010000000101
000001010000001111111100000000111111111100000110000000110000010011111111
111111001111011000001010000000001111110000001000000000001111100011111101
000000001111011011111001000000001111100000000100111110111111100000000000
111111001111110000000001000001001111111100000000000000011111100011110110
111111111111100100000010111111111111011100000000111101101111011011110111
000000010000000000000000000000111111111011110111000001100000000111110101
111111001111111100000010000000011111101100000111000000100000001011111111
111111101111011011111110111111011111011100001001111111011111101111111100
111111101111110100000010000001000000001100000010000000100000001000000100
000000100000010000000110000001000000000111110100000001100000000111101111
111101110000010000000011111110000000100000000010111110111111100011111111
111111011111111100000011000000100000010100000100111111110000000111111101
000000011111011100000101111110111111110000001001000000010000010111111110
000001100000001011111010111111100000100111111110000000001111110011111010
111110010000101000000100111110100000000100001000111111010000000011111011
000000001111011000000101111110111111100000000001000001001111110111111100
000000011111101111111100111110111111110011111101111110110000000011111111
111110000000000100000100000001000000100000000100111111101111110011111111
000001111111101100000110111100101111110111111011000000011111110111111010
111101110000001100000000111111111111111111110111111111001111000011110011
000000001111011011110101000000001111000111111100000001011111111100000100
111111000000111000000110111111111111110000000001000001100000000000000010
000000100000001011111001111110000000110111111100000000000000101100000110
111110010000101000001110111100010000011100010001111110010000100100001010
000001001111111100000001000000110000001111111100111111111111111000000011
111110000001101011111010000001000000010000000000000001111111001011111111
000000101111111011111110000000101111110111111101000000011111111000000010
111111010000000100000001111111000000001011111101000000010000000111111111
111110100000000100000000000000110000001011111111111111100000001011111110
000000111111111100000010111111111111111100000001000001000000001011111111
000001010000000000000010000000100000001000000001111111110000001000000001
000000110000000100000010111111011111110000000100000000000000010000000001
000000100000000000000011000000000000000111111100111111110000001111111101
000000000000000100000011111111010000000000000010000000101111110000000001
111111111111110100000100111110100000000000000011111111110000000000000110
111111001111111011111110111111011111110100000000111111101111111100000000
000000001111111111111111111111101111111011111101111110101111111100000010
111111110000010100000010000000001111110100000001111111000000001111111110
111111110000001011111101111111100000001111111010111111010000000011111110
111111100000000000000010111111001111111000000001000000100000000100000000
000000011111110000000010000000110000000100000011000000101111111000000010
000001010000000111111110000000110000010000000001111111001111111100000010
000001010000101111111111000001101111100111111010111111111111100111111100
000000100000001100000001000000011111101111111101000000111111110111111110
000000010000011111111001000000010000001011111000000001001111100111111110
000001100000010111111100000000101111110011111101111110101111110100000000
111111111111100100000001111111001111100111111011111110011111110011111110
111101010000000100000010111110110000010111111011000000111111100000000010
111111010000000000000001111110101111011111111111111111010000000000000100
000001111111111111111101111111111111111011111110000000000000011100000000
111110111111101000000001000001011111111100000001000001110000000111111100
111110001111110111111110111110001111100100000000111111010000001100000001
111111100000011000000000000010011111110011111000000011111111100011111101
000000111111110000000000000000111111101000000000000000000000001000000110
000000111111011111111101000000111111110000000110111111001111110011111110
000000100000001111111110111111101111111011111001111111100000000111111110
111111011111110100000010000000111111110000000000000000001111110111111111
000000001111100000001010111111101111111100000001111110100000101111110110
