00000001
11111110
00000001
00000011
11111011
11111101
00000010
11111101
00000000
11111100
11111100
11111011
00000001
11111011
00000010
00000001
11111111
11111111
00001000
00000011
11111110
00000010
00000011
00000100
00000100
00000011
11111101
00000110
11111100
11111100
00000010
11111100
00000000
00000000
00000000
00000000
00000000
00000000
00000000
00000000
00000000
00000000
00000000
00000000
00000000
00000000
00000000
00000000
00000000
00000000
00000000
00000000
00000000
00000000
00000000
00000000
11111111
00000000
00000000
00000000
00000001
00000000
00000000
00000000
00000001
11111110
00000010
00000010
11111100
11111101
00000010
11111110
00000001
11111100
11111101
11111100
00000000
11111011
00000010
00000001
00000000
11111111
00000110
00000010
11111101
00000010
00000100
00000011
00000100
00000011
11111101
00000101
11111101
11111101
00000001
11111110
11111111
11111111
00000101
11111111
00000001
00000000
00000011
00000000
00000100
11111111
11111110
11111111
00000110
11111111
00000101
00000001
00000011
11111110
00000010
00000101
11111111
00000011
00000001
00001010
00001111
00000101
00000000
00000001
11111110
00000001
00000100
00000000
00000000
00000000
00000000
00000000
00000000
00000000
00000000
11111111
00000000
00000000
00000000
00000000
00000000
00000000
00000000
00000000
00000000
11111111
00000000
00000000
00000000
00000000
00000000
00000000
11111111
00000000
00000000
00000000
00000000
00000000
00000000
00000000
11111111
00000000
00000001
11111110
00000011
00000010
00000000
00000001
00000001
00000010
00000001
00000010
00000011
00000011
00000001
00000000
00000001
11111111
11111101
00000001
00000010
00000000
11111111
00000011
00000011
00000001
00000010
11111100
00000001
00000011
00000001
00000010
00000000
00000000
11111111
00000000
00000000
00000000
00000000
00000000
00000000
00000000
11111111
00000001
00000000
00000000
00000000
00000000
00000000
00000000
00000000
00000000
00000000
00000000
00000000
00000000
11111111
00000000
00000000
00000001
00000000
00000000
00000000
00000000
00000010
11111011
00000011
00000101
11110110
11111010
00000100
11111010
00000010
11110101
11111000
11110011
00000010
11110101
00000100
00000010
11111110
11111101
00001111
00000110
11111011
00000100
00001001
00001001
00001010
00000110
11111000
00001100
11110111
11111000
00000011
11111001
00000000
00000000
00000000
00000000
00000000
00000000
00000000
00000000
00000000
11111111
00000000
00000000
00000000
00000000
00000000
00000000
00000000
00000000
00000000
00000000
00000000
00000000
00000000
00000000
00000000
00000000
00000000
00000000
00000000
00000000
00000000
00000000
00000000
11111111
00000000
00000000
00000000
00000000
00000000
00000000
11111111
00000000
00000000
00000000
00000000
00000000
00000000
00000000
11111111
00000000
00000000
00000000
00000000
00000000
00000000
00000000
00000000
00000000
00000000
00000000
00000000
00000000
11111111
00000000
11111111
00000000
00000010
11111101
00000100
00000011
00000001
00000010
00000011
00000010
00000010
00000011
00000100
00000011
00000011
00000000
00000011
11111110
11111100
00000011
00000010
00000000
11111110
00000101
00001000
00000001
00000001
11111011
00000001
00000100
00000001
00000010
00000010
11111100
00000010
00000101
11110111
11111010
00000011
11111011
00000010
11111000
11111000
11110101
00000001
11110111
00000011
00000011
11111101
11111110
00001101
00000110
11111011
00000100
00000111
00001000
00001000
00000110
11111001
00001011
11111001
11111010
00000010
11111010
00000000
00000000
00000000
00000000
00000000
00000000
00000001
00000000
00000000
00000000
00000000
00000000
00000001
00000000
11111111
00000000
00000000
00000000
00000000
00000000
00000000
00000000
00000000
11111111
00000000
00000000
00000000
00000000
00000000
00000000
00000000
00000000
11111001
00000100
00001000
11110010
00010111
00001110
00000010
00001000
00001010
00001110
00001010
00010010
00010001
00010100
00001001
11111111
00001101
11111100
11100111
00000111
00001000
11111110
11110101
00010010
00011110
00000001
00001011
11100111
00001010
00010101
00000100
00001100
00000000
00000000
00000000
00000000
00000000
00000000
00000000
00000000
00000000
00000000
00000000
00000000
00000000
00000001
00000000
00000000
00000000
00000000
11111111
00000000
00000000
00000001
00000000
00000000
00000001
00000000
00000000
00000000
00000000
00000000
00000000
00000001
00000000
00000000
00000001
11111111
00000001
00000001
00000001
00000001
00000000
00000001
00000001
00000001
00000001
00000001
00000000
11111111
00000000
00000000
11111111
00000000
00000001
00000000
11111111
00000000
00000001
00000000
00000000
11111111
00000000
00000010
00000000
00000001
00000000
00000000
00000000
00000000
00000000
00000000
00000000
00000000
00000000
00000000
00000000
11111111
00000000
00000000
00000000
00000000
00000000
11111111
00000000
00000000
00000000
00000000
00000000
00000001
00000000
00000000
00000000
00000000
00000000
00000000
00000000
00000000
00000000
00000000
11111111
00000000
00000000
00000000
11111111
00000000
00000001
00000000
00000001
00000000
00000000
11111111
00000000
00000000
00000000
00000000
00000000
00000000
00000000
00000000
00000000
00000000
00000000
00000000
00000000
00000000
00000000
00000000
00000000
11111111
00000000
00000000
00000000
00000000
00000000
00000001
00000000
00000000
00000000
00000000
00000000
00000000
11111111
00000000
00000000
00000000
00000000
00000000
00000000
00000000
00000000
00000000
00000000
00000000
00000000
00000000
00000000
00000000
00000000
11111111
00000000
00000000
00000001
11111101
00000010
00000010
11111011
11111110
00000010
11111110
00000001
11111100
11111100
11111010
00000001
11111011
00000010
00000001
00000000
11111111
00000110
00000100
11111110
00000010
00000011
00000011
00000100
00000100
11111110
00000101
11111100
11111101
00000010
11111101
00000000
00000000
00000000
00000000
00000000
00000000
00000000
00000000
00000000
00000000
00000000
00000000
00000000
00000000
00000000
00000000
00000000
00000000
00000000
00000000
00000000
00000000
00000000
00000000
00000000
00000000
00000000
00000000
00000000
00000000
00000000
00000000
00000001
11111110
00000001
00000011
11111010
11111101
00000010
11111100
00000010
11111010
11111011
11111001
00000001
11111010
00000010
00000001
11111111
11111111
00001000
00000100
11111101
00000010
00000100
00000101
00000101
00000100
11111100
00000111
11111011
11111100
00000010
11111100
00000000
00000000
00000000
00000000
00000000
00000000
00000000
00000000
00000000
00000000
00000000
00000000
00000000
00000000
00000000
00000000
00000000
00000000
00000000
00000000
00000000
00000000
00000000
00000000
00000000
00000000
00000000
00000000
00000000
00000000
00000000
00000000
00000000
11111111
00000000
00000000
00000000
00000000
00000000
00000000
00000000
00000000
00000000
00000000
00000000
00000000
00000000
11111111
00000000
00000000
00000000
00000000
00000000
00000001
00000000
00000000
00000000
00000000
00000000
00000000
00000000
00000000
00000000
00000000
00000000
00000000
00000000
00000000
00000000
00000000
00000000
00000000
00000000
11111111
00000000
00000000
00000000
00000000
00000000
00000000
00000000
00000000
11111111
11111111
00000000
00000000
00000000
00000000
00000000
00000000
00000000
00000000
00000000
00000000
00000000
11111111
00000001
00000000
11111111
00000000
00000000
00000000
00000000
00000000
00000000
00000000
00000000
11111111
00000000
00000000
00000000
00000000
00000000
00000000
00000000
00000000
00000000
00000000
00000000
00000000
00000000
00000000
00000000
11111111
00000000
00000000
00000000
00000000
00000001
11111101
00000010
00000011
11111010
11111100
00000010
11111100
00000010
11111000
11111011
11111000
00000001
11111001
00000011
00000001
11111110
11111110
00001010
00000100
11111100
00000011
00000110
00000110
00000111
00000100
11111011
00001000
11111010
11111011
00000001
11111011
00000000
00000000
00000000
00000000
11111111
00000000
00000000
00000000
11111111
00000000
00000000
11111111
00000000
11111111
00000000
00000000
11111111
00000000
00000001
00000000
00000000
00000000
00000001
00000000
00000000
00000000
00000000
00000001
00000000
00000000
00000000
00000000
11111111
00000000
00000000
00000000
00000000
11111111
00000000
11111111
00000000
00000000
00000000
00000000
11111111
00000000
00000000
00000000
00000000
00000000
00000000
11111111
00000000
11111111
00000000
00000000
00000000
00000000
00000000
00000000
00000000
00000000
00000000
11111111
00000011
11111011
00000011
00000110
11110100
11111001
00000100
11111001
00000010
11110101
11110111
11110011
00000010
11110100
00000101
00000010
11111101
11111110
00010010
00000111
11111010
00000110
00001010
00001010
00001010
00001000
11111000
00001110
11110111
11110111
00000100
11111000
00000000
00000000
00000000
00000000
00000000
00000000
00000000
00000000
00000000
00000000
00000000
00000000
00000000
00000001
00000000
11111111
00000000
00000000
00000000
00000000
00000000
00000000
00000000
00000000
11111111
00000000
00000000
00000000
00000000
00000000
11111111
00000000
00000000
00000000
00000000
00000000
00000000
00000000
11111111
00000000
00000000
00000000
11111111
00000000
00000000
00000000
00000000
00000000
00000000
00000000
00000000
00000000
00000000
00000000
00000000
00000000
00000000
00000000
00000000
00000000
00000000
00000000
00000000
00000000
00000010
11111100
00000010
00000100
11111000
11111011
00000010
11111100
00000010
11111000
11111001
11110110
00000010
11111000
00000011
00000010
11111110
11111110
00001100
00000110
11111011
00000011
00000110
00001000
00000111
00000101
11111010
00001001
11111001
11111011
00000010
11111010
00000000
00000000
00000000
00000000
00000000
00000000
00000000
00000000
00000000
00000000
00000000
00000000
00000000
00000000
00000000
00000000
00000000
00000000
00000000
00000000
00000000
00000000
00000000
00000000
00000000
00000000
00000000
00000000
00000000
00000000
00000000
00000000
00000000
00000000
00000000
00000000
00000000
00000000
00000000
00000000
00000000
00000000
00000000
00000000
00000000
00000000
00000000
00000000
00000000
00000000
00000000
00000000
00000000
11111111
00000000
00000000
00000000
00000000
00000000
00000000
00000000
00000000
00000000
00000000
00000011
11111011
00000011
00000110
11110100
11111001
00000011
11111010
00000010
11110110
11110111
11110011
00000001
11110100
00000100
00000011
11111101
11111110
00010001
00001000
11111010
00000110
00001001
00001010
00001001
00001000
11111001
00001110
11110111
11111000
00000100
11111000
00000101
11110111
00000101
00001001
11101101
11110100
00000110
11110110
00000011
11110000
11110010
11101010
00000011
11101110
00000111
00000100
11111100
11111100
00011011
00001100
11110111
00001001
00001110
00010000
00010000
00001100
11110100
00010101
11110001
11110011
00000101
11110100
00000000
00000000
00000000
00000000
00000000
00000000
00000000
00000000
00000000
00000000
00000000
00000000
00000000
00000000
11111111
00000000
00000000
00000000
00000001
00000000
00000000
00000000
00000000
00000000
11111111
00000000
00000001
00000001
00000000
00000000
00000000
00000000
00000000
00000000
11111111
11111111
00000000
00000000
00000000
00000000
00000000
00000000
00000000
00000000
00000000
00000000
00000000
00000000
00000000
11111111
00000000
00000000
00000000
00000000
00000000
00000000
00000000
00000001
00000000
00000000
00000000
00000000
00000000
00000000
00000001
11111110
00000001
00000010
11111100
11111110
00000001
11111110
00000001
11111011
11111101
11111011
00000001
11111100
00000010
00000001
11111111
11111111
00000110
00000010
11111110
00000010
00000011
00000100
00000100
00000010
11111101
00000101
11111100
11111101
00000001
11111101
00000010
11111100
00000010
00000011
11111001
11111011
00000010
11111100
00000010
11111001
11111010
11110111
00000001
11111000
00000011
00000001
11111111
11111110
00001010
00000101
11111011
00000011
00000110
00000111
00000111
00000101
11111011
00001001
11111010
11111010
00000010
11111011
00000000
00000000
00000000
00000000
00000000
00000000
00000000
00000000
00000000
00000000
00000000
00000000
00000000
00000000
00000000
00000000
00000000
00000000
11111111
00000000
00000000
00000000
00000000
00000000
00000000
00000000
00000001
00000000
00000000
00000000
00000000
00000000
00000000
00000000
00000001
11111111
00000001
00000000
00000001
00000000
00000010
00000000
00000000
00000001
00000011
00000001
00000010
00000000
00000001
11111111
11111111
00000010
00000000
00000001
00000000
00000100
00000110
00000010
00000000
11111111
11111111
00000010
00000010
00000001
00000100
11111000
00000100
00001000
11101110
11110101
00000101
11110111
00000011
11110001
11110011
11101100
00000011
11101111
00000110
00000100
11111100
11111100
00011001
00001011
11111000
00001000
00001110
00001111
00001111
00001011
11110100
00010100
11110010
11110100
00000101
11110101
00000000
00000000
00000000
00000000
00000000
00000000
00000000
00000000
00000000
00000001
00000000
11111111
00000000
00000000
00000000
11111111
00000000
00000000
00000000
00000000
00000000
00000000
00000000
00000000
00000000
11111111
00000000
00000000
00000000
00000000
00000000
00000000
00000000
00000000
00000000
00000000
00000000
00000000
00000000
00000000
00000000
00000000
00000000
00000000
00000000
00000000
00000000
00000000
00000000
00000001
00000001
00000000
00000000
00000000
00000000
00000000
00000000
00000000
00000000
00000000
00000001
00000000
00000000
00000000
00000000
00000001
00000001
11111111
00000010
00000001
00000000
00000000
00000001
00000010
00000001
00000010
00000010
00000010
00000001
11111111
00000001
00000000
11111110
00000001
00000001
11111111
11111111
00000011
00000100
00000001
00000001
11111110
00000001
00000010
00000000
00000001
00000000
00000000
00000000
00000001
00000000
00000000
00000000
00000000
00000000
00000000
00000000
11111111
00000000
00000000
00000000
00000000
00000000
00000000
00000000
00000000
00000000
00000000
00000000
00000000
00000000
00000000
00000001
00000000
00000000
00000000
00000001
00000000
00000000
00000000
00000000
00000000
00000000
00000000
00000000
00000000
00000000
00000000
00000000
00000000
00000000
00000000
00000000
11111111
00000000
00000000
00000000
00000000
00000000
00000000
00000000
00000000
00000000
11111111
00000000
00000000
00000000
00000000
00000000
00000000
00000001
11111110
00000100
00000001
11111101
11111110
00000011
11111111
00000011
11111110
11111101
11111101
00000011
11111101
00000100
00000001
00000000
11111111
00000111
00000101
11111110
00000011
00000011
00001000
00001001
00000101
11111110
00000101
11111101
11111110
00000011
11111101
00000000
00000000
00000000
00000000
00000000
00000000
00000000
00000000
00000000
00000000
00000000
00000000
00000000
11111111
00000000
00000000
00000000
00000000
00000000
00000000
00000000
00000000
11111111
00000000
00000000
00000000
11111111
00000000
00000000
00000000
00000000
00000000
00000000
00000000
00000000
00000000
00000000
00000000
00000000
00000001
00000000
00000000
00000000
00000000
00000000
00000000
00000000
00000000
00000000
00000000
00000000
00000000
00000000
00000000
00000000
00000000
00000000
00000000
00000000
00000000
00000000
00000000
00000000
00000000
00000010
11111100
00000011
00000100
11111000
11111100
00000011
11111100
00000001
11111000
11111001
11110111
00000010
11110111
00000011
00000010
11111110
11111110
00001100
00000101
11111011
00000011
00000111
00000111
00000111
00000110
11111010
00001010
11111010
11111010
00000010
11111010
00000000
00000000
11111111
00000000
00000000
00000000
00000000
00000000
11111111
00000000
00000000
00000000
00000000
00000000
00000000
00000000
00000000
00000000
00000000
00000000
00000000
00000000
00000000
00000000
00000000
00000000
00000001
00000000
00000000
00000000
00000000
00000000
00000001
11111110
00000001
00000010
11111100
11111110
00000001
11111110
00000001
11111101
11111101
11111100
00000001
11111100
00000001
00000000
11111111
00000000
00000110
00000010
11111110
00000010
00000010
00000011
00000011
00000011
11111110
00000100
11111101
11111101
00000001
11111110
00000000
00000000
00000000
00000001
00000000
00000000
00000000
00000000
11111111
00000000
00000000
11111111
00000000
00000000
00000000
00000000
00000000
00000000
00000000
00000000
00000001
00000000
00000000
00000000
00000000
00000000
00000000
00000000
00000000
00000000
00000000
00000000
11111111
00000000
00000011
11111110
00000011
00000010
00000001
00000001
00000010
00000001
00000001
00000011
00000100
00000011
00000011
00000000
00000010
11111111
11111101
00000011
00000001
00000000
11111110
00000101
00001000
00000010
00000001
11111100
00000001
00000011
00000010
00000010
11111011
00000010
00000101
11110110
00010000
00001011
00000001
00000110
00000111
00001001
00000110
00001100
00001100
00001101
00000110
00000000
00001001
11111101
11101111
00000101
00000110
11111111
11111001
00001101
00010100
00000001
00000110
11101111
00000110
00001111
00000011
00001000
00000000
00000000
00000000
11111111
00000000
00000000
00000000
00000000
00000000
00000000
00000000
11111111
00000000
00000000
00000000
00000000
00000000
00000001
00000000
00000000
00000000
00000001
00000000
00000000
00000000
00000000
00000000
00000001
00000000
00000000
00000000
00000000
00000000
00000000
00000000
00000000
00000000
00000000
00000000
00000000
11111111
00000000
00000000
00000000
00000000
00000000
11111111
00000000
00000000
00000000
00000000
00000000
00000000
00000000
00000000
00000000
00000000
00000000
00000000
00000000
00000000
00000000
00000000
00000000
00000000
00000000
00000001
00000000
00000000
00000000
00000000
00000000
00000000
00000000
00000000
00000000
00000001
00000001
00000000
00000000
00000000
00000000
11111111
11111111
00000000
00000000
00000000
00000001
00000001
00000000
00000000
11111111
00000000
00000000
00000000
00000001
00000000
00000000
00000000
00000001
00000000
00000000
00000000
00000000
00000000
00000000
00000000
00000000
00000000
00000000
11111111
00000000
00000000
00000000
00000000
00000000
00000000
00000000
00000000
00000000
00000000
00000000
00000000
00000000
00000000
00000000
00000000
00000000
00000001
11111111
00000000
00000000
00000000
11111111
11111111
00000000
00000000
00000000
11111111
11111111
11111111
00000000
00000000
00000000
11111111
00000000
00000010
00000001
00000000
00000000
00000001
00000000
00000000
00000001
11111111
00000001
11111111
00000000
00000000
11111111
00000001
11111110
00000001
00000010
11111101
11111101
00000001
11111110
00000001
11111101
11111101
11111100
00000000
11111100
00000010
00000000
00000000
00000000
00000101
00000011
11111110
00000001
00000011
00000011
00000011
00000010
11111110
00000100
11111100
11111110
00000001
11111101
