10000000
11010001
00010110
11100111
11111001
00101001
00011011
00000101
11101011
11111000
00110011
00000100
01111100
11111101
11110111
10011100
11101101
01111111
00001010
11111110
00000001
00001110
11110110
00010101
11111111
11100110
00010011
10001110
00001110
00001011
00001101
01111111
