0001000000010000000100000001000100000000
1111000000000000111100000000000000000000
0000000100000000000011110000000000000000
0000111111110000000000001111000111110000
0001000000010001000000000000111100000000
1111000100000000111100000000000000000000
0000000000000000111100000000000100010000
0000000000010000000100000000000100010000
0000000100011111000100001111000000000000
0000000011110000111100001111111100010000
1111111100001111111100000000000000010000
0000000000000000000100000000111111110000
0000000000000000000011111111111100000000
0000000000000000000000010000000011110000
0000000000000000000011110000111100000000
0001000011110001000000000001000100010000
1111000000000001000011110000111100000000
0001000000000001111100000000000100000000
0001000100000000000100010000000100000000
0000000000000001000000000000000100000000
0000000000001111000000001111111111110000
0000000000000001000000000000111100010000
0000000011111111000011110000111100010000
0001111100000001111100000000000000000000
0001000100000000000000000000000011110000
0000000000000000000011110000111100000000
0000000000000000000111110000000000000000
0001000000000000000000000001000000000000
0000000100000001000000000001000000000000
1111111111111111111100000001111100000000
0000000000001111111100001111000000000000
0000111100010000111100000001000000000001
0000000000000000000100000000000000010000
0000111100000000000100011110111111110000
0000000000001111111100000000000100000000
0000111100010000111011111111111111110000
1111000000001111111100000000000000000000
0000000111110001000100011111000000000000
0000111100001111000111110001001000100000
0000000000000010000000010001111100010000
0010000000000001000000010001000011110000
0000111111111111111111110001000000000000
0001000100001111000000000010000111110000
0000000000010001000011110000000100000000
1111111100011111000100011111000011110000
0000000000001111000000011111111100000000
0001000111110000111100010000111111110000
0001000011111111111111100001111100000000
1111000011110000000100001111111011110000
0000000011110001000100000000111100000000
0000111011110000111000010001000000000000
1111111111100000000000000001000000000000
0011000100000010000100010000111100000000
0000000000010001111111110000000111110000
1111000000001111000000000000000011110000
0000000000010000111100101111111100010000
0000000100001111111100000000000111110000
1111000100000000111111110001000000000000
0000000000000001000100000000000000000000
0000000011111111000000000000000000000000
1111111111111111000000010001000100010000
1111000000101111000111101111000000000000
1111000100001111111111110000111100000000
1111000100000000000100101111111100000001
0000111100000000111100001111000011110000
0001111111110000111111111111111000010000
0001000011110000000000000000111100000000
0000000011110000000100010000000100000000
1111000000010001000100010001000100100000
0000111111110001000100100001000100100000
1111000100010001000000000000000000010000
1111111111110011000100010010000000000000
1111111111110000111000001111111111100000
1111111111100001000100100000111111110000
1110110111100001000100010000111111110000
0000000000000000000100000000000011110000
1110111000001111000000000000111100000000
1110110111100001111100010000111100000000
0001000111110000111111110001111111110000
1111000100010001001000010010000011110000
0000000000000001000100101111000000010000
0000111011101111111100001111111100010000
1111111011110001000100100001000000010000
1110110111100010000100000001000000010000
1111000011111111111111110001000000000000
0000000100000000000011110000000000000000
1111111000000001000100000001000100010000
0000111100000000111100000000111100000000
1110111011010001111100000000000011110000
0000111100000000000100010000000000000000
1111111111110001001000100001000100000000
0000111100000000000100010000000000010000
1111000000000000000000000000000000010000
1110110111010010000000010001000100010000
1110111100000001000000001111000000000000
1111111000000000000000000000000000010000
0000111100000000000011110000000011110000
0001000100001111111111111111000100000000
0000111100000000000000001111000000000000
0000000011110001001000000000001000000000
1111000000000000000000010000000100000000
1111111111110001000100011111000100010000
0000000011110001000000001111111100010000
1111111111110001111100000000111100000000
1111111000000000111100000000111000000000
1111111111110001000100001111111100000000
1111111111110001000100010001000000000000
1111000000000000000100000001000000000000
1110111011110000000111110000111100000000
1110111011110010000100100000000000000000
0001000000000000000011110000000000000000
0001000000000001000100010001000000000000
1111111011110001000100010000000000000000
1110111011110000000000000000000011110000
1111111000000001000000000001000000010000
1111111011110000000000100001000000000000
1111111111111111111111110001000111110000
0000000000000000000011110000000011110000
1111111111110000000011110000111100010000
1111000100000001000000000000111111110000
1111111011100001000000000001000000010000
0000111100000001000000010001000000000000
0000111100000001000100010001001000010000
1111000000001111000000010000111100100000
1111000000000000000000000001000000010000
1111110111100010000000100010000000100000
0000111111110000111100010000111100010000
1111111011110001111100010000111100000001
0000111100000000000000000001000000000000
0000000100000000000011110000000100010000
0000000000010000000100011111111100010000
0000000000011111111100010000000100000000
1111000000000000000000001111111111110000
0001000011110000000011110001000000000000
0000111111110000111100000000000000000000
1111000100000000000000000000111100010000
0001000011110001000100000000000011110000
1111000100000000000000001111000000000000
0000000000000000000000000000000111110000
1111111100000000000011110000000000010000
1111000000011111000000001111000111110000
0000000000001111000111110000000011110000
0001000100000000000000010001000000000000
1111000000011111000100001111000011110000
0000000000001111000100001111000011110000
0000000100010000000100000000000111110000
1111000000001111000011110000000100010000
1111000100001111000111111111001000000000
0000000000001111000100000000000100000000
0000000000001111000000000001000000000000
0000111111110000000011110000000000000000
0000000100000001000000000001000000010000
0000111100000000000011110000000000000000
1111000100011111000000000000000000000000
0001000100000000000000000000000000000000
0001111100000000111100000000111100000000
0000000000000000000000000001111100000000
1111000100011111000011110000000000010000
0000000011110000000100000000000111110000
0000000111110000000011110000000111110000
0000000000001111000000000001111111110000
0001000011110000000000000000111100000000
0000000100000000111111110000000000000000
0000000000010001000000000001000100000000
0000000000000000111100001111000000000000
0001000000000000000000001111000000000000
0000000000001111111111111111000011110000
0000000000001111000100000001000111110000
0000000011110000000000000000000000000000
0000000000010000000000000000000100000000
0000000011110000111111110000000000000000
0000000000000000000000001111000000000000
0001000000001111000000000000000000000000
0001000100000000000000000001000011110000
0001111100000000000000000001111100000000
0000000100010000111100000000000000000000
0001000000001111000011111111000000000000
0001000100000000000000000001000100000000
1111000011110000111100000001000000000000
0000111111110000000011110000111100000000
0000000100010000111100000000000100000000
0000000000000000000000000001111100000000
0000000000001111000000000000000100000000
0000111100000000111100000000000000000000
0001000011110000000011110001000000000000
0000000000000000000000000001000100010000
0000111100001111111100000000111111110000
0000000000001111000000011111000000000000
0000111100011111000011110000000011110000
0001000011110000111111110001000000000000
0000000000000000000000000000000011110000
0000000000000000000011110000000011111111
0000000000000001000000011111000000010000
0010000100000010111111110000111011100000
1111111100000000000000001111111100000000
1111000100001110000011111111000000000000
0000000111110001000111110000000100000000
0001001000000000000100011111111111110000
0000111111111111000011110001000000010000
1111111111110000000000010001001000010000
0000000100100001000100001111000000000000
0000000000001110111011111111000111110000
1110000100101111000000101111000000000000
1111000011110000000100000000000100000000
1111000000010001001000100000110100000000
0000000011110000000000011111111011110000
0000111100000000000100010001000011110000
1111000000001111111111100010001100010000
1111000111110010001011110000111011110000
0000111111110001000000001111111100010000
0000000011111110000011101111000111010000
0000111111110000000011110000000011110000
0000001011111111000100111111111100000000
0000000100000000000000000001000100000000
0000111111111111111100000001000000000000
1111000111110001111100000000111111110000
0000000100000000000011111111111011110000
0000000100001111000000001111000000010000
0001000000001111111111110000000000010000
0000000100010000000000000000111000000000
0000000000000001000011110001111100000000
0000111100000000111000000000000000110000
0000000000000000000100001111000011110000
0000000000001111111100011111111011110001
0001111100000000111111110001000000000000
1111000000011111000000000001000100000000
0000000000000000000011111111111100000000
0001000000000000000011110000000000000000
1111000000001111111100010000111111110000
0001111100000000000000011111000000000000
0000000000000001000011111111000011110000
0000111111111111111100000000111100010000
0001111100000001000000000000000000010000
0000000000000000000100010000000100010000
0000000100000000111111110000000000000000
0000000100000000000000000000000000000000
0001000000010000111111110000000000000000
0000000000000001111100000001111111110000
0000000000010001000000001111111111110000
0000000000011111000100011111000100000000
0001000000010001000100000000000000000000
0000000000010000000000011111000000000000
0000111100000000000000000000000000000000
0000000011110000000000000000000100000000
0000000000000000000011110000000000010000
0001000100001111111100000000000000010000
1111000000000000000000000001000100000000
0000111100000001000011110001000011110000
0000111100010001000000000000111100000000
0000111100001111000000000000000000000000
0001000100010001000100010000000000010000
1111111100000000000000001111111100000000
1111000000001111000000001111000011110000
0001000100010000111100010000000011110000
0000111100000001111100000001000000000000
0001000000010000000011111111000000001111
0001111111110000000100000000000000010000
1111000011110000000011111111000000000000
0000000100000000000000000000000000000000
0000111100001111111100000000000000000000
0000000000000000111100000001111100010000
0000000000001111000011110000111111110000
0001000000000000000000000000111100000000
0000000000010000000100000000000100010000
0000000100000000000111110000000100000000
0000000000010000000011110000000000000000
0000000000010000111100000000111100000000
1111000011110001000100000001000100000000
0001000111110000000111110000001000000000
0000001000001111000100001111000100000000
0000000000000000000100000000000100000000
0000111100000000000000010000000000000000
0000000000001111000011110000000011110000
0000001000001111000111110000000111110000
0000000000000000000111110000000000000000
0000000000000000000000010000000100010000
0000000100010000000100000000000011110000
0001000000010000000000000000000000000000
0000000000010000000000000000111100000000
0000000000000000000100000001000100000000
1111000111111111111111110000000100000000
0000000000000000000000001111000011110000
0000000000000001000000000000111100000000
0001000100010001000011110001000000000000
0001111100010000000000000000000011110000
0000000100001111000111111111000111110000
0001000100000000000100000000000000000000
0000000100000000000100001111000111110000
0000000000000000000000000000000000010000
0001000011110000000000001111111111110000
0000111100011111000100000000000000000000
0000111100011111111111110000000000000000
1111000000001111000000000000000000010000
1111111100000000000000000000000000000000
0000111111110001000000000000000000000000
1111111100000000000000001111000000010000
0000000100011111111100000000111100000000
0001111111110000111100001111000000000000
0000000000000000111100000000111100000000
0000000100010000000000011111000011110000
0001000000000000000100001111111111110000
0000000000000000000000001111111111110000
0000000100000000000100011111111100000000
1111000011110000000100000000000000010000
1111000100010001000100001111111100000000
0000000011111111111100001111111100000000
1111000100011111000000011111000100010000
0000000100000000000000010000000000000000
0000000000010000000000010000111000000000
0000000000010001000000010000000100000000
0000000100000000000011110000000000010000
0000000100001111000100011111000100010000
0000001000010000000000000000000011110000
1111111111110000000000000001000011110000
1111000000010000000100001111000000000000
0000000000000000000011110000000011110000
1111000100000000000100000000000000000000
0001000100010001000100000001000100010000
0001000011110000111100000000000100000000
0000111100000001111111110000000011110000
0001000000010001111111110000000011110000
0000000011110000000000000001000100000000
0000000000001111000000000000000000000000
0000000000011111000000010000000100000000
1111111100000000000000010001111100000000
0000000100000000000011110001111111110000
0001000000000001000100000000111100000000
0000000000000000000000001111000011110000
0000000100000000000111110001000000010000
0000000000000000000000000000111100000000
0001000100001111111100000001000000000000
0000000011111111000000010000111111110000
0000000000000000000000000000000000000000
0000000111110000111111110000000000000000
0000000000010000000100000000000000000000
0000000100000000000000000000000111110000
0000000100000000000100000000000011110000
0000000000010000000111111111000111110000
0000000011110000000000010001000000000000
0000000000001111000000000000000000010000
0000000100010000000000000001000100000000
0001000000000000000100010000000000000000
0001000000010000111100001111000000000000
0001000100000000000000000000000000010000
0000000100011111000100000000000100000000
0001111100000000000000000000000011110000
0001000000000000000100000000000000010000
0000000000011111000100010000000000010000
0000000111110000000000000001000000000000
0000000100001111000011111111000111110000
0000000011110000000100000000000011110000
0001000100000000000000000001000011110000
1111111100000000000000010000000100010000
0010000111110000000000001111111011110000
0000000000000000111100000000000000000000
0000000000000000111111111111000000010000
0001000000010000000000000000000000000000
1111111100010001000000001111111111110000
0001000111111111000111111111001000000000
0001000011111111111100000001111100010000
0000000000010000111100000001111111110000
0001111111111111111111110000000000000000
0000111100000001111100000000111111110000
0000000100000000000000000001000100010000
0001111100000001000100011111111111100000
0000000000000000000111111111111111110000
0000000000000000000000001111111100000000
1111000011111111000000100001000000100000
0000000000000001000100001111000011110000
0000000100000001000000001111111100010000
0000000000000000111100010001000000000000
1111000100000000000000010000000000100000
0000000000010000000100010000111111100000
0000000011111111000100010000000100000000
0001000000010000000000000000000100010000
1111000100010000000000011111111100010000
0000000100100000000011110000000011110000
0000111111110000111100000001111100000000
0000000100000000000000000000000000000000
0001000000000000000000001111000111110000
1111000100011111000100010000000000000000
0011000000000000000000000000000100000000
0000000000000000000011111111111100000000
1111111100000001111100000000111111101111
0001000011110000000000010000000000010000
0000000100000001000000000000111100000000
0001000000000000000011110001000000000000
0000000100001111000100010000000000000000
0000000011110000000000001111000011110000
0000000011110001000000000010111111110000
0000000111110001000011110001000000000000
1111111100001111000100000000000111110000
1111000000000000000000001111000100000000
0001000100000000000011110001000111110000
0000000100000001000011110001000111100000
0000000000000000111111111111000000000000
0000000011110000111100000000000000000000
1111111100010000000000010001000100000000
1110000000000000111100000000000011110000
1111000000001110111000000000000011110000
0001000111110000000011110000000011110000
0000111100000000111100010001000000010000
0000000100010001000011110001111111110000
1111000000010000000100011111000000000000
1111000000001110111100000000111111110000
0000000000000000000100000000000000010000
0000000000000000000000001111000000010000
0000111100000000000000000000000000000000
0000000011111111111100010000111100000000
0001000100000000000000000000000000000000
1111111111110000000000001111111100000000
0001000000000001000111110000111111110000
0000000100010000000011110000111100000000
0000111111111110111100001110000000100000
0001111111110010000100010001000000000000
0001111100000001000000000000000111110001
0001000011110000000011110000000011110000
0000000000010000111111110000000000000000
1111000000010000000000010000111100000000
0000000100000000000000010001000100010000
1111000100000000000000000000000011110000
0000000000010000000000010000000100010000
0000111100001111111100010000000000000000
0001000011110000000000000000111111110000
1111000000000000000000000001000100010000
1111111100000000000100000000111100000000
0000000000000000000000000000000100000000
0001000100001111000000010000000100000000
0001000000001111000000000001000000000000
0000111111110001111100000001111100000000
1111000000010000000000001111000100000000
0000000000000000000000010000000000000000
0000000100100000111100000000000000010000
0001000000010000111100000000111100000000
0000000011110001000011110000000000000000
0000111100000000000100010001000000010000
0000111100000000111100011111111100000000
0000000000000001000000010000000000010000
1111000000000000000000001111000000000000
0000111100000000000000000000111100010000
1111111111111111111111110001000100010000
0000000100010000000011111111000111110000
1111000100010000000000001111000000010000
0000000011111111000000000000000100010000
0000111100001111000100001111111100010000
0001111111110000000000010001000000000000
0000000000010000111100000000000000010000
0001000100000000000000000000000000000001
0000000100000000000000001111000000000000
0000000000000001000000000001000000000000
1111000000001111000000000000000100000000
0000000000000001111100000000111100010000
0000000000001111000100000000000000000000
0000111100000001000000010000000100000000
1111000000000000000000000000000000000000
0000000000000000000000010000000100010000
0000000000000000000000001111000000000000
0000000000000000111100001111111111110000
0000000000010001000011110000111111110000
0000000000000000000011110000000000010000
0000000000000000000000000000000000000000
1111000100000000000011110001111100000000
0000000000001111000011110000000000000000
0000000100011111000000010000000000000000
0000000000001111000000001111000000010000
0000000100010000000000011111000100010000
0000000000001111000000010000000000000000
1111000000011111111100010000000000000000
1111000000010000111100010000000000000000
0000000111110000000000000000111111110000
0000000011111111111100011111000000000000
0000000000000000000000000000000000000000
1111111100001111111100000000000000000000
0000000011111111111111110000000000000000
0000000000000000000000011111111100010000
1111000000010000000011111111000000000000
0000000011110000000000000000000000000000
0000000000010000000100010000000000010000
0000000100000000000011111111000100000000
1111000100001111000000011111000100000000
0000000000000000000000000000000000000000
0000000100000000000011110000000100000000
1111000011111111000000010001000100010000
0000000000000000000000000001000100010000
0000111100001111000000000000000011110000
0001000000000000000100000000000000000000
0001000011110000000000001111111100000000
0000000000000000000000000000000100010000
0000000000001111000000000000000000000000
0000000011110000111111110000111100000000
0000000000010000000000000000000100000000
0001111100000000000000001111000000000000
0001000100000000000111110000000000000000
0000000000001111000000000000000000000000
1111000000000000000000001111000000000000
1111000000001111000000010000000100000000
0000000011110000000000000000000000000000
0001000100010000000011111111000000000000
0001000100000000000000000001111100010000
0001000000000000000011110000000100000000
1111000000011111000100000001000111110000
0000000100011111000000000000111100000000
0000111100000000111111110000111100000000
0000000000010000000000000000000000010000
1111000011110000111100000000000100000000
0001000100000000111111111111000100000000
0001000000000001000011111111000000010000
0000000100001111111100000000000000000000
0000000100011111000000000000111100000000
0000000100000000000011110000000111110000
0000000000000000000000010000000100010000
0000000000010001000100000000000111110000
0001000000000001000000000001000000000000
1111000011111111000100000000000000010000
1111000000000000000000001111000100000000
0000000000000000000000000001000111110000
0000000000000000111100001111111111110000
0000000000011111000100011111111100010000
0000000011111111000000011111000111110000
0000000000000000000000010000000000000000
0001111100000000000000000000000100000000
0000111111110000000000001111000100000000
1111000111110000000100010000000000000000
0000000000001111000000010000000000000000
0000000000000000000000000000000000000000
0000000000001111000000001111000000010000
0001000000010000000000000001000000000000
1111111100001111000100001111000100000000
0000000000000000000000001111000000000000
0000000100000000000100000000000100000000
0000111100000000000000000000000100000000
0000000100001111000111110000001011110000
0000111111110000000011110000000000000000
0000000011110001111100000000111100010000
0000111111110000000100010000000000000000
0000000000000000000000000001000011110000
0000111111110000111100000000000000000000
0000000011111111000000011111111100000000
0000000000010000000000010000111100000000
0001111100011111000000000000111100010000
0000111111111111000011111111111100000000
0001001000001111000100000000000000010000
0000000000010000000000001111000000010000
0000000011110000000000000000000000010001
0000111100000000000000000001000111110000
0001111111110000111100001110000000010000
0000111100000000111100000000111111110000
0001000100000000000011100000111111110000
0000000000000000000000011111000000000000
0001000000000001000000000000000011110000
0000111111110010000111110000000000000000
1111000100000001001000010001000000000000
1111000100011110000000001111000011110000
0010001011110001000011100001000111100000
0000000100000000000111110001000011110000
0000000000000000111100010000111100010000
1111111100101111111000001111111111110000
0000000000010000000100000001000100010000
1111000000001111000100010001000111110000
0010001000101111000100000000001000000000
0010000011110001111100001111111100000000
1111111000000000000100000001000100000000
0001001111110001000111110000111111110000
1111111100000001000100011111000000010000
0000000100001110000011110000111100000000
0000000000000000000000010000000000000000
0000000000010001000000011111000000000000
0000111111110000000000010001000100010000
0000000011110000000100011111111100000000
0000111100000000000011110001000100000000
1111111011111111111000000000000000000000
0001000011110001000011111111111011110000
0000000011110000000000000001000000000000
0000111111111111111100010000000100110000
1111000011110001000100000001000000000000
1111111111111111000000000000000100000000
1111000000000001000000000000000000000000
0000000000001111111100010000000100010000
0001111100000001111100011111000000000000
0000000000000000111100000000111100000000
0000000000000000000000000001000011110000
0000000000000000000000000000111100000000
0000000000000000000100000000000000000000
0000000000000001000100000000000000000000
1111000011110000000000000000000000000000
0001000100000000111111110000000011110000
0000111100001111000100000000000000000000
0000000100001111000100000000000011110000
0000000000000000000100001111111111110000
0000000000000000111100001111000011110000
0000000000001111000000001111000000000000
0001000000000001000000000000000000000000
0000000000000000000100000000000100010000
0000111100000001000000000000000000010000
1111000000010000000100000000000000000000
0000111100000001000100000000000000000000
0000000000000000111100000000111100000000
0000000111110000000100010001000000000000
0000000011111111111111110000000000000000
0000000000000001000111110000000000000000
0000000000000000000000000000000000000000
0000000000001111111100000000000100000000
0000000000010000000000000000000111110000
1111000000000000000000000000111100000000
0001000100000000000100000000000100000000
0000000000000000000100001111000000000000
0001111100000000111100000000000000000000
1111000000000000111100000001000000000000
0000000000010001000100000000000000000000
1111000000010001000011110000111100000000
1111000000000000000000000000000000010000
0000000000000001000000000000000000000000
0000000000000000000011110000000000000000
0001000000000001000011110001000011110000
0000000000000000000011110000000100000000
0000000000000001111100000000000000000000
1111000000000000111100011111111111110000
0000000111111111111100001111000011110000
0000000000000000111111111111000011110000
0000111100000000000111110000111100000000
0000111100000000000000000000000000000000
1111000000000000111100000000000100010000
0000000100010000000100000000000011110000
0001000100000000000000000000111100000000
1111000000000000000000001111000000000000
0000000011110000111100001111000000000000
0000000000001111111100000000000011110000
0000000100000000000000010000111100000000
0000000000010000000000000001111111110000
0000000000000000000000000000000011110000
0000111111110000000000000000000000010000
0001000000000000000100000000000011110000
1111000100011111111100000000000111110000
0000000100000000000000000000000100010000
1111000000010000000100000000111100000000
0000000000000000111100000000111111110000
0001000100000000000000011111000100000000
1111000000000000000100000001000100010000
0000000000000001000000000000000111110000
0001000100000000000000000001000000000000
1111111111110000000000000001000000000000
0000111100011111111100010000000011110000
0000000000000001000000000000000000000000
1111000000001111000000010000000000010000
1111000000000001111111110000000000000000
0000000000000000000000000000111100010000
1111111100010000000111111111000011110000
1111000000000001000011110000000011110000
0000000011110000111111110000000100000000
1111000000000000111100010001111100000000
1111000000000000000000000001000000000000
0000000000010000000000010001000000000000
0000111100010000000011111111111100000000
0000000011110000000000000001000000000000
0000111100000000000000000000000100000000
0000000000000001000100000000000011110000
0000000000011111111100001111000011110000
0000111100010000000000001111111100010000
1111111111110000000000000000000000010000
0000000011110000111100000001000000010000
0000111100011111111111110000111100000000
0000000011110000111100010001000100010000
0000000000001111000000000001000000000000
0000000000000001000100000000000100000000
0000111100000000000000010000000000010000
0001000100001111111100000000111111110000
0001000000010000000000010000000000000000
0000000111111111000000001111000100010000
0000000011110001000011110001111100000000
0000000000000000000000000000000000010000
0000111100010000000000000000000000010000
0001000000010000000000000001000000000000
0000000000010001000000000000111100000000
0001000000000000111100000001000000010000
0000000000000000111100000000000000010000
0000000100000000000000000000000111110000
1111111111110000000000000001000000000000
0000000000010000000111111111000000000000
0001000000000001000011110000111100000000
0001111100010000111100001111000011110000
0000000000000000000011110000000000000000
0000111100000000000011110000000000000000
1111111100010000111100000001111100010000
0000111100000000000000010000000000000000
0000000100000000000100001111111100000000
0000000100000000111100000000000000000000
0000111100010000111100000000000000010000
0000111100000000000000000001000000000000
0001000011110000000011110000111111110000
0000000000010000111111110000000000000000
0001000000000000000000000000000000000000
0001111100010000111100000000000000010000
0000000000001111000000001111000000010000
0001111100010000000000000000000000000000
0001000000000000000111110000000000000000
0000000000000000111100001111000100000000
1111000111110000000011110000000000000000
0000000000000000000000000000111100000000
0000000100000000000000000001000000000000
0000000111111111000100000000000011110000
0000000000001111111100010000000000000000
0001111100000001000011111111000011110000
0000000000010001000000010000000011110000
0001000000010000000000000001000000000000
0000111100000000000011110000000000010000
0000111100001111000000011111000000000000
1111000000000000000000000000000000010000
0000000000000000111111110000111111100000
1111000111110000000000001111000011110000
0000000011110000000111110001000011110000
0000000011110000000000000000000000000000
0001000111110001000100010000111100000000
1111000000000001000000001111111100000000
0001000000000000000011110000111011110000
0001000111110000000000000000111111110000
0001000011110000000000000001000000000000
0000111100011110000000001111111100000000
0000111111110000000000000001000100010000
1111000000010001000000011111000000000000
0001000000100000000000000000000011110000
0000000000001111000000000000111100000000
1111000011110000111100000001000100010000
0010000000000000111100001111111100000000
1111000000000000000100010001000100000000
0000000000000000111100000000111111110000
1111000000000001000011110001000011110000
0000000000000000000100000000000100000000
0000111100001111000000011111000100000000
1111000000001111111100001111000000000000
0000000000000000000111110000111100000000
0000111100000000111100010000111100010000
0000000011111111000011111111000011110000
1111000100001111000100000000000100010000
0000111000000000000100010000001000000000
0000000111110001000100000001000100000000
0000111100000000000000000001000000000000
0000000011110000000000000000000000000000
0001000000000000111111110000000000000000
0000000000000000000011111111000000000000
0000000100001111000000000000000011110000
1111000100010001000000010000000011110000
0000000000010000000011110000111100000000
0001000011110001001000001111000100010000
0000000100001111000100011111000000010000
1111111100000000000000010000111100000000
0000000011110000000000001111111100000000
1110000000000000000111110000000111100000
0000000000000000000000000000000000000000
1111111100000000000011110001000011110000
1111000000000000111100001111000011110000
1111000000000000000000000000111100010000
0000000011111111000100010000000100010000
0000000000010000111100000000000011110000
0000000000000000000000000000000100000000
0000001000100000000100000000000000000000
0000000111110000000100011111000100010000
0000000000010000111100000001111000000000
0000000100011111000000000000000011110000
0000111111111111000000000001000000000000
0001000000011111000011111111000000010000
0000000111111111000011111111111111110000
0000000000000000000011110000000000010000
0000000011111111111111110000000000000000
0001000100010001000000000000111100010000
0000000111110001000100000000000100000000
0000000011110000111100000000111100100000
1111111100000001000000000000111111110000
1111111100010000111100000000000111110001
0001000000000000000100000000000000000000
0000000000000000111100000001000000010000
0001000011110000000100000000111100000000
1111111100010000000000000001000000000000
1111111100000000000000001111111100000000
0001000011110000000000000000000000000000
0000111100000000111111110000111100000000
0001000000000000000000010000000000000000
0000000000000000000000010001000100010000
1111000011110000000011110000000100000000
0000000100010000111111110001000000010000
0000000000000001000000000001000000010000
0001000000000000111111110001000000000000
0000000111110001000111100001000000000000
0000000000010000000100000001000000000000
0001000000000001000000000000111100000000
0001000000000001000000001111000000000000
0001000100010001000000000000111100000000
0000000000001111111100000000000000010000
0001111100000001111111110000000000000000
0001000100010000000111110010000100000000
0000000000000001000011110000000000000000
1111000111110000000000000000000011110000
0001000100000000000011111111000000010000
0000000000001111111100000001000000000000
0000000000001111000011111111000000000000
0000000000000000000000011111111100010000
0000000000000000000000001111000100010000
0000000100000001000000001111000000000000
0001000000000001111111110000111100000000
1111000011110000000011110000000100000000
0001000000000001111111110000000011110000
0001000000000000000011111111000000000000
0000000000001111111111110001000100010000
1111111100001111000000000000000000000000
0000000000010000000011111111111111110000
0000000000011111111100001111111000000000
0000000000001111000100011111000000000000
0001000100010000000000000000000011110000
0001000100010000000100100000111100010000
0001000000010010000000001111000000010000
0000000100000001000000001111111011110000
0000000100010001000011111111000000010000
0000000000000000111100000000000111110000
0001001000000001000100001111000011100000
0001000000010001000100011111000011110000
0001000000011110111100010000000011110000
0001000000010001111100001111110100000000
0000000000010000000011111111111000000000
0000000000000000000000001110111011110000
0000001000000001000100011111000011110000
0010000000010010000000010000110111100000
0000000000011111111100000010000000010000
0001111100000000000100010001000000000000
0000000011110010000100010000000000000000
0001000100001111111111100001000100000000
1111111100000001000100101101111011010000
0000000011110001111100001111111011110000
0001000000010000000000000000111100000000
0000000000000001000100011111111011100000
0000000000001111111100000000000011110000
0001000000010001000100001101110111010000
0000111100010001000000011111111100010000
0001000000001111111100001111111100000000
1111000011111111000000000000000000010000
0000111111110000111100000000111100010000
0000000000000000000000000000000000000000
0000000000000000111100000000000000010000
0000000000010001000100000000000000010000
1111000000010000000100000000000011110000
0000000000000000000000000000000100000000
0000000000010001000000000001000000000000
0000000000001111000000001111000000000000
0000000100000001000000001111111100000000
0000000000000000000011111111000100010000
1111000100000000000000000000000000000000
0000000000011111000011110001000000000000
0000111111110000000111110000000000000000
1111111111110000111100010001000011110000
0001111100000001111100010000000000010000
1111000000000000111100010000111100010000
0000000000000000000000000000000000010000
1111000000000001111100001111000100000000
1111111100000000000100000000000000000000
0000000000001111000000001111000000000000
0000000100000000000000000000000000000000
1111111100000001000011111111000100000000
0000000100000000111100000000000100010000
0000111100000000000000001111000000010000
1111000100000000000000000000000000010000
1111000011110000111100000001000000000000
0000111100001111000000001111000000000000
0000000000001111000000001111000000000000
0000000000011111000000010001000000000000
1111000000001111000000001111000011110000
0000000000001111000000010000111100010000
1111000000000000000100000000000111110000
0000000000000000000100000000000011110000
0000111100010000000000000000000000000000
0000000100001111000000000000000000000000
0000000000010000000000000000000011110000
0001000011110000000011110000111100010000
0000111100010001000000000000111100000000
0000000000000000000000000000000000000000
0000111111110000111111110000000111110000
0000000100000000111100001111000000000000
0001000000011111000000011111111111110000
0000000000000001111111110000111100000000
1111000000000000111100001111000000000000
0001000000000000111100001111000100000000
0000000000001111000000010000000000010000
0000000011110001111100000000000000010000
0001000000000000000000000000000000000000
1111000000000000000000000000000000000000
0000111100000000111100000001000000000000
0000000011111111000011111111000000000000
1111000000000000000000001111111100000000
0001000000000000000000001111000011110000
0000111100000000111111110000111100000000
0000000000001111000000011111111100000000
0001000000010000000000000000111100000000
0000000000000000000000010000000000000000
1111000100000000000000000001000100000000
1111000000010001111100000000000000000000
0000000100000000000011110000000000000000
0000000100001111000000000000000000000000
0000111100000000000000010000000011110000
0001000100000000000000001111000100000000
0000000000001111000000010000000000000000
1111000000001111000011110000000100010000
0000111100000000000100001111000000000000
1111000000000000000000010000000011110000
0000000011110001000000000000111100000000
0000000011111111111100001111000000000000
0000000000001111111100000000000011110000
0000000000000000000000010000111111110000
0000000000000000111100001111000100000000
0001111100011111111100000001000100000000
0000111100010000000000000000000000000000
0000111111110000000000001111000100000000
0001000011110001000000000000000011110000
0000000100010000000000000000111100010000
0000000100010000000000000000000100000000
0000000000000000000011110000000011110000
0000111111111111000011110000111111110000
0000000111110000000000000000000011110000
0001000000001111000000000000000011110000
0000000000001111000100010000000100000000
0000000100001111111111110000000100010000
0000111100001111000100000000000011110000
0000000011110001000000001111000100000000
0000000100000000111100000000000000000000
0000000000000000000000011111111111110000
0000000000000001000011111111000000000000
0000111100000001111100000001000000000000
0001000000000001111100001111000000000000
0000000011111111000000000000000000000000
1111000100000000000100011111111000000000
0000000000001111000000000000000000000000
0000000100010000111111110000000100000000
0000000011110000000011111111000000000000
0001000000001111000000010000111100010000
0000000000011111000000011111000100000000
1111000100000000000000000000000000000000
0000000000000001000000001111000000010000
1111111111111111000100011111111100000000
0001000000000000000000010000000000010000
0000111111110000111100000000111111110000
1111111111111111111100011111000000010000
1111000011110010000100010000111100010000
0000000000000001000000000001000011110000
1111000000010000000100000000000011110000
0000000011110001000111110000000011110000
0000000011110000000000000001000100000000
0000111100000000000000000001000000000000
0000111100010010000000100001111100000000
1111111111110000000000010000000000010000
1111000011110001000000000000000000000000
1111000000000001000100000000000000000000
0001111000000001000100010001111111110000
1111000011111111000000000001000011110000
0000000011110000111100010001111111110000
0000111111110001111111110000000000000000
0000000000000000000011110001111100000000
1111111111110001000100011111000111110000
0000111100000001000000011111000000010000
0000000000000001000000000000000000000000
0000000100000000000000001111000100000000
0000000011110000000000000000000000000000
0000111111110001000000010000000011110000
1111000011110000000000010000000000000000
1111111111111111000100001111111100010010
0000111100000000000100001111111111110000
0000111111111111000000000001000000010000
1111000000001111000000000000000100000000
0000000011110000000000001111111111110000
0000111100001111000000001111000011110000
0001111111111111000011110000000000000000
0000000000001111000000000000000000000000
0001000100010000000000010001111100000000
0001000011110001000000001111000000000000
0000000100001111000000000000000000000000
0000000100000000000100000000000000000000
0000000000000000000000001111000000000000
0001000100000000000000000000111111110000
0000000000000000000100001111000111110000
0001000000001111111100001111000000000000
1111000100010000000111111111111111110000
1111000000000000000000001111000000000000
0000000000001111000011110000000100000000
0000000100010000000000001111000011110000
0000000100000000000100001111111111110000
0000000100001111000000001111000100010000
1111000011111111000000000000000000000000
1111000000000000000100000000111100000000
1111000100011111000000000001000000000000
1111111100000001000000011111111111110000
0000000100000000000011111111000000000000
0001000000000000000100000000000000000000
0001111100000001000000001111111100000000
0000000000000000000000001111111111110000
0001000100000000000100001110111011110000
0000000111110000000000000001000111110000
0000000100000000000011110000111100000001
0001000000010001000000010000000111110000
1111000011110001111100000000111100000000
0000000000000000000000000000000100010000
0001000100001111000000001110111100000000
0000000011110000000011110000111100010000
1110000000000000000000000000111111110000
0001001011110000001011100001001000000000
0000111111111111000100011111000000010000
1111111100001111111100000001111100000000
0000111111111110111011110000000000010000
1111111000001111111100000001000100000000
0000000000010000000000000000111100000000
1111000000000001000000000001000011110000
1111000011110001000111110000000011110000
0000000000001111111100011110000000000000
1111000000011111111100000000000000000000
1111000100001111000011110001000011110000
0000111111111111111100010001111100010000
1110111011111111000100101111000100000000
0000000111110000000100000000000100100000
0000000000001111111100000000111111110000
0000111100010000000000011111000000000000
0001000100001111000011111111111111110000
1111000100011111000011111111000000000000
1110000011110000000000000001111100000000
0010000111110000000100000000000011110000
0000000111110000000000000000000000010000
0000000000011111000000000001000000010000
1111001000000000000100001111001000000000
0010001000000000111111110000111000000000
0000111111110000000000000000000100000000
1111111100000001000111110010000100000000
