0000000100010001111100010000000000010000
1111111011101111110011111111111011110000
0000111100000000111100010001000000010000
1111111100011111000100011111001000110000
1111110111111110110111110000111011110000
0000000100000001000000010000111100010000
1111000000001111000000000001000000010000
0000000000010001000000000000111100010000
1110111000001111111100010000000100010000
1110001000100000010000110010001000000000
0001000100010001000111110000000000000000
0000000000000001000111110010000000000000
0001001000010000000111110000000100010000
0010000100010010000100100011001011110000
0001001000010010000100000000000000000000
0001000000000000000000000000000000011110
0001111111110000000000010000111111110000
0000000000001111000011100000000100010000
0001000100000001000100000000111100010000
0001000000010000000000001111000000000000
0000111100001111000000000000000111110000
0000111100010001111000010001000000100000
0000000000010000111100000001000000000000
0001000000010000111100010000111100010000
0000000100101111111111110001000100000000
0000111100000001111100010000111000000000
0000000111111111000111110000000000000000
1111111100001111000000001111000100000000
0000000000000001001000010000000100010000
1111000011111111000011110000111111110000
0000111111110000000111110001000100000000
0000000011110001111100000000000000000001
1111000100000001000000000000111111110000
0001000000000000111100010001111100010000
0000000000010000000000000001111100010000
1110111100001111000000010000111100000000
0001111000000000111100001111000100010000
0000000100000000000000010000001000010000
0000000011110000000000001111000011110000
0000000000000000000100010001000000000000
0000111011110000111100000000000000010000
1111000000000000001000010001001000010000
0001111100000001000100001111111111110000
0001111111110000111100000000000100010000
1110111111110000000011101110111011110000
0001000100101111000100010001000100010000
0001111100000001111111111111000000000000
0001000000000000000011110000000000000000
1111000000011111000100000000000000010000
1111000000001111111100000001000111110000
0000000011110001000100000000000011110000
0001111100000000111111110000000011110000
0000111100000000000100010000000011110000
1111000000000001000000011111000100000000
0001000000001111111100001111000111110000
0001111100000001111111111111111100010000
1111111100011111000100010001000111110000
1111111111110001000100000000000000000000
0000111100000000000000000000111111110000
0000000100010001000100010001000100000000
0001000100011111000000000000111111110000
0000111100010000000111110010001000100000
0001111100000000000000001111000000000000
1111000000010001000000000001000011110000
1111000100000000111100001111111111110000
0010111111000001000011100001000000000000
1111000000010000000100011111111111110000
1111111111111110111111111111111100000000
0001000011110000111111110000000100000000
1111000011111110111000010000000100010000
0000000000010000000111110000111111110000
1111111111111111111111110000111100000000
1111111011110000111111100001111100000000
1110111100011101000000000000000100000000
0001000100000000000111111111000100010000
0000000100010000000011110001001000000000
0010001000100001000100010000111100000000
0001001000010001001000010001000100000000
0000000011110001000100000010001100010000
0001001000010000000111110000000100100000
1111000000000000000000000001000011110000
0000111100011111111000001111111100010000
0000000000011111000000010000111111110000
0100001100010001000100011111111011100000
1110111000000000111100000000000000000000
0000111100010001111000000001111111110000
0000000000001111111100000000111100010000
0001111100010000111100011111111111100000
0000001100101101111011101111000000000000
0011111111110000111111100000000011110000
0000000100000000000100010000001000010000
0000111100010000000000010000000000000000
0001001100110010000100010001000100000000
0001000111110001000011110011001100010000
0000111100000001000000011111000000100000
1111000000011111000100000000000000011100
1111000100001111000000010000111100000000
0001111111011111000100001101000100110000
0000111100010001000000000000111100010000
1110110100001111111011100001000011100000
0010111111100000001000101110000100010000
0000000011110000000100000000000000010000
1111000100000000000100000001000100000000
0000000000000000000011110001000111110000
1111111011101111111111110000000100000000
1111111100011111000100010000000011100000
0010000111110001001000011111000100100000
0000000000010010001000010000111111110000
1111111100011111000011111110111100000000
0001001000000001001000110001001000010000
0010001000000011001000010001001000100000
0001001000000001001000010000000000000001
0000111100010000000011110001111100000000
0000111000010000000000010010111111110000
0000000000010000000000001111000000000000
0000000000011111000000001110111111110000
0000111011110010000000000000000000000000
1111000100010000000100010000000011110000
0000111100010001000100001111000100000000
1111000000000001000000000000111111110000
1110111100001111111011101111111111110000
0001000100000010001100011111000111110000
0000000000000001111011110010000000010000
1111000100000000111111111111111100000000
0000000100010000111100011110111011110000
0000000011111111111111110000000100000000
1111000011110000111100001111111011110000
1111000100001111111100001111000000000100
1111111100010000000100000000000000010000
0001001000010000111100010001111011100000
0000000100000000000100010000111100010000
0001000111110001001000010000111111110000
0001000100010001111100001111000011110000
0000000100010001000000000000111111110000
0001000100000001111111110001000111110000
0000000111110000000000000000000100000000
0010000100000001000111111111111111100000
0001000011110001111100001110111111100000
0001000000010000000000000000111111110000
0000000000010000000000001111000011110000
0000000000001111111111110001111111110000
0000111100000001111100000000000011110000
1111000000001111000011111111111100010000
1111111100010001000000010000111111111111
1111000000000000111100010001000100010000
1111001000101110000100111101111100110000
0000000000001111000000000001000011110000
1111111011110000111100001111000100000000
1110000100101111000000011111111100010000
1111000011110001111111111111000111100000
0000000000010001111100010000000000000000
1111000111110000000100000000000011110000
1110111111100000111111111110000000010000
0000111011110000111000000000000011100000
0001000000001111111100010000000100010000
1111111100000000000011110001111100000000
0000000100000001001000101111000100000000
1111111011110000111100001110000000010000
0000000000010000000100001111000000000000
1111000100001111111100000000000000000100
0000111100000000111100011111000000000000
0000000000101111000100100000111100000000
0001000011110000000100001111111100010000
0000000011110001001000001111000100000000
1111000000001111000100000000111100000000
0000000000010001111111111110111111110000
0001000100000000000100010001111100000000
0000000000000001000100011111111100010000
1111001000000001001100101111111111110000
0000001000000000000011111111111111110000
1111000000000001000000000000111100000000
0000000100001111000100000000000100000000
0001000000010001000100010001000100010000
0001000111111111000100000000111100000000
0000000000001111000100000001000100000000
0000000011111111000011110000000000011111
0000000100011111000100000001000100000000
1110010000001111010100001111001100000000
0000000000001111000100000000111111110000
0001111100000001111111101111000011100000
0000001100000001000100011111001011100000
0001000111110001000011101111111111100000
1111111111110000111100001111111100000000
0001000000000000000111110000000100000000
0000000111110010000111100001111111010000
0001111111111111110111100000110111110000
1111000111110000000000001111000011110000
0000000011111111000000000000000011110000
0000000011110000000000000001111100000000
0000111100000000111100000000000000000000
0001000100011111000000000000000111100000
1111000111111111111100000001000100001011
0001000011111111000011111111111100010000
1111000000010000111111100001000011110000
0000000100001111000000000000000111110000
0001000100110000000000010000000100100000
0000111100000000000100000000111111100000
0000000100000000111100101110000100100000
1111000000010001111100010001000000010000
0000000100011111000100001111000000100000
0000000100100000000000000000000100100000
1111000000011110000100011110000101000000
0000111011100000000100001111000011110000
0001000000000000000100000001000011110000
1111111011111111111111100001000011110000
1111111100001111111000001111111100100000
0000111100001111000111111111000100010000
1111000000001111111100001111000000011011
0000000000001111000100010001111100000000
1111111100000000000000000001111100000000
0000000100011111000100010001111100010000
0000000111110000111100000000000011110000
0000000000011111000000001111111100000000
0000000000000001000011110000000100010000
0000111100010000111111110000000000010000
0000111111110001000011110000000100010000
1111111111110000111100010000111111110000
0000111100001111000011110000000000000000
1111000000010000000111111111000111110000
0001000100011111000111110001111111110000
0000111111110001111100000001000100000000
0001000000010001000011110000000000000000
0000000000010000000111110000000000000000
0001000100010001000000010001000000000000
0000000000010000111100010001000100010000
1111000100011110111100010000111111100000
0000111100000001111111110001111111110000
0001000100001111000000001111111100010000
0000000100001111111100011111111111110000
0001000100001111111111101111111111100000
0001000000000000111100001111000000000000
0000000100000000111111110001000111110000
0001000000100000000000010000111111100000
0000000000010000000011111111111111100000
0000000000000001000100010000111111110000
0000111100010001000011110001000100010000
0000000100100000001100011111111100000000
0000000100010000000000001111000100010000
0000111111110000111100001111000011110000
0000000000001111000011110001111100010001
0001000000000000000000000000000100000000
1110000111101111001011110001001111110000
0001111100000001000100001111111100000000
0001001000101111000100010000111111100000
0001000011110000000100001111000111110000
0000000000000000000100001110000000000000
0001111100010000000100000000111111110000
1111000100010001000000010000000011110000
0001000100100010000011110001111011110000
0001000100101111111000101110110100010000
0000000100000000000100010001000100010000
0000000011110001000000000000000111110000
1111111100000001111100000001000011110000
0000111100000001000011111111000100010000
0001000000000010000100000001000100000000
1111000000000000000100010000000000001001
