0010000011111111111111110000000000000000
0000111100010000111100000001111100010000
1111111111100000000000011111111100010000
0000111111110000000000000001111100000000
0001000111111111000000000000000000000000
1111000111110000111100000000111100000000
1111000100000000000000011111000000010000
0000111100010001111100000000000000000000
0000111100010000000111111111111111110000
0000000000000001000000101111000000010000
0000000100001111000100000000111111110000
1111000100011111000000000000111100000000
0001000000011111111100000001111100000000
1111000000010000000011110000000100010000
1111111111110001111100001111111111110000
1111000111110000111100000000000111110000
0000111100001111000000000001000000100000
0001111111110000000100000000000111110000
1111000000010000000000010000000100100000
0000000100010000111111111111000100000000
1111111111111110111011110000000000010000
0000000000011111000000010001000111110000
1111000000001110000100000001001000100000
1110111100010001111100010001000000010000
1110000011110000111100000001000100000000
1111111100011110111100011111000000000000
1111111100000000000100010001000000000000
0000000111110001000100000001111100000000
0000111100000001000011111111111100000000
0000000100000001111100010001000000000000
0001000000001111000111110001111100010000
0001111100010000000100100001000100011111
1111000000001111000000000000000011110000
1111000011110000111100000001111100010000
0001000111110001000011110001111111110000
0000111100010001111100000000111100010000
1111000011110001000000001111000000010000
1111000111110000111111111111111111110000
0000000100000001000100010000000111110000
0000000000000000000000000000000100010000
0001000000000000111100010001111100000000
0000111100001111000100001111111111110000
0000000100010001000100000000000100000000
0000000000000000111100010001000000000000
1111000000000000000100000000111111110000
0000111111110000000100010000000100000000
0000000100011111000011110000000100010000
0000000100000000000100011111000011110000
0001001000010000000100100000001000100000
0000000011100000111111101111111111100000
0000111100010000111000011111110100000000
0000000011111111000000001111000011110000
0000000000100001000000000001000000000000
0000000111110000001000100001000000100000
0001000100010001111100000010000011100000
0000111011111111111011110000000011110000
0000000100010001000111110001000011110000
1111000011110000000011111111111011110000
1111000100000000000100001111111100010000
0001001000010010111100010011000011110000
0001111011100000111011111111111011110000
1111000100001111111100001111000000010000
1111000000010000000000000000000000000000
0001000000000001111100010001000000001000
1111111111111111000000010000111100000000
0000000100000001000000000000000100010000
0001111100001111000000001111111100010000
1111111100000000000000010001000000000000
0000111111110001000000000001001000000000
0001000000000001000100000001000100000000
0001111100011111111111110000000000000000
0000000011110001000011110001000100010000
1111000100010001000100001111000100000000
1111000000000000000000000001000100000000
0000000100000001000100010001000000010000
1111111100001111000100000001000000000000
1111000000001111111111110000000100010000
1111000011110001000100001111000011110000
0000000111110001000000010001000011110000
1111111100000000000111111111111111110000
1110000000001111111100001110111111110000
0001000000000000111100000000000000000000
1111000100101111111100000000000000010000
0001000111111111111100010000000111110000
0000000000000000111100011111000011110000
0000000000000001000000001111000000010000
1110000000000001000000000000000011110000
1111111000001111111100011111111100000000
1111111100010001000000000001001000000000
1111111111111111000000001111000000010000
0001000000000000111111110001000100010000
1111111111110000111111111111111000010000
0001000100111111000100011111111100000000
1111000000010000111111110000000000000000
1111000011110000000111110001111100000000
0000000000011111000000000001000100010001
1111111100010000000100100001000111110000
0000111100000000000011101110111100000000
1111111011110000000100010000001000010000
0000000000011111000000000000111100000000
1111000000110001000100000001000011100000
0001111111110000111011101111111111100000
1110000100111111000100111111111000000000
0000111100100000000100000000111100000000
0000000011110001000000000000000100000000
0001001000010001000000001111111100100000
0001000100000001000000000000111111110000
0001000100000000000000001111111011110000
1111111111111110000000001111000100010000
0001000100000001111111111111000000000000
0000000000000001111100000000111011110000
0000111111111111111000001110000100001111
0001001000000001000100010000000000010000
0001000000001110111100001111111111110000
1111111011100001000011110001111111110000
0001000000000000000000000000000000010000
0010111111110010000100000000000000000000
1111111111111111111011111111111111110000
0000111111100001000100010000001000100000
0000001000010000000100011111111100000000
0000111100000000111100000000111100010000
0001111100000000001000010001000100010000
1111000100000000000100001111111111110000
0000111100011111000011111111111100000000
1110000000011110111011110001000011100000
1111000100001111000011110000111111110000
0000000011111111111111111111000000000000
1111000011101110000011100000111100000001
0000001000010001111100011111111000000000
0001111100010000000011110001000100010000
1111000000000001000100000000111100010000
0001000000001111111111110000111100000000
1111111100000000111111110000000011110000
1111000000010000111111100000111100000000
0001111011101111111111100001000000000000
0000000111100001000000000000000111110000
0000000100000000000000000001000100010000
0000111000010000111100010000000000000000
1111000000011111000000000001000100010000
1111111100010000000100100000000000010000
1111001000001110111111111111000011100000
1111000100010001000000011111000000000000
0000111100001111000100000000000000000000
0000111111110000000100000000000000010001
0000000100100000000100000001000100000000
1111111011111111000011110000000100010000
0000111100000001000100000001000111110000
0000111111110000000100010000000100000000
0001000000001111000111110000111100000000
1111000100000001000000001111111111110000
0001000000011111000000001110000111110000
0000111100001111000011110000000000000000
0000000000011111000000000000000000010000
1111000111100000000000001111111100010000
1111000000000000000011111111000100010000
1111111111111110111100000000000100010000
0001111111110000111100000010000100010000
0000000100000000111100011111000011110000
0000000100000000111111110000000100010000
0000000000001111000011110001000000011111
1111111111110001000111100001000011110000
1111000000001111000011100001000100000000
1111000000010000000000000001111100010000
0000000011110000000011110000000100000000
0000111100000001000011101111111111110000
0001000100010010000000000001000000000000
0000000000100001000000000001000100000000
0001000100010000000011100001000100010000
1110111100011111111100011111000100000000
0000111100000000000011110010000111110000
0000111100011111000111110000000000000000
1110000011110000000011111111000011110000
0000000000001111000000001111000100010000
0000000000000001111100001111111111110000
0001000000000000111100000001000000000000
0000000111110000111111110001001000010010
0000111111110000111100010000000000000000
1111111111110000000000000000111111110000
1111000011110001111100000001000111110000
1111000100010000000100010001000100010000
1111000000010000000000010000111100000000
0000000000011111111100001111000000000000
0000111100000001000100001111000100000000
1111000000000000000111110000000111110000
0000000000010001111100000000111100000000
0000111100001111000000000000000100000000
0000000100010000111100010001111100000000
1111000000001111000000000001111111110000
0000000100000001000000000000111100010000
0000000100001111000100001111000111110000
0000000100011111000000000001111100000000
1111000000010000000100011111111100010000
0001111111110001000100000000000011110000
0000000100010000111100001111000100010000
0000000000001111000100001111000100000000
0001000000010000000000011111111100000000
1110111111111111000000000000111100000000
0000000111111111001000001111000011110000
1111111011100000111111111111111111100000
0000000000000010000100000010001000010000
0000000100001111000000000010000000010000
0001000000000001000000000000000000000000
0001111111101111000100001111000000000000
0010001000010001000100000000111011110000
0001000100000000111100001111111100000000
0001000111110000111100001111000011110000
0000000011110000111111111111000011110000
0001111100010000000011110000111100100000
1111000000000000000000000000111100000000
0001000100011111111000001111000000000000
1111000011110000111111111111111000000000
1111000000000000000000011111000000010000
1111111111110001000000000001111100000000
1111000100100000111100011111000000000000
0000000011100010000100010000000000000000
0000000000001111000011110000111000000000
0001000000101111000011111111000100000000
0000000000000001111111110001000000000000
0000111100010001000000000001000000000000
0001000000010001111111110001111100000000
0010001000101111000000010001000100010000
1111000111110000000100000000000000010000
1111111111110000000000000000000000000000
0001000100010000000000000001000100011011
0000001000010001000000001110000000000000
0001000000010000000000011111000011110000
0001000100010001111100000000000000000000
1111000000000001000100010001000000010000
0000000011110001111100001111111100010000
0000000100000000000000000000111111110000
0001000000000001111111100001000100100000
0000000000000000000111111111000100000000
0000000100010000000111110010000111110000
1111000000000001111100000000111100010000
1111000011110000111111110000111111110000
0001000000000001000100000000111100000000
1111111111110000000000001111111100000000
0001111100000001000100000001111100000000
1111000011110000000000010000111100000000
0000111100001111000011110000000000000000
0000000000100000111100011111111011110000
1110111011110001000100011111000111110000
0010000100100001111100001111111111100000
0001000100011111000000000000000000010000
0010000000010000000100011111111111110000
1111000000000001000000001110000000010000
0011000011111111000111111101111111110000
0000000000000000000100001111111100000000
0000000011110001111100000000000100010000
0000111100001111000100010000000100010000
0000111100010000111111110000111100000000
0000000011110001000011111111000111110000
1110000011110000001011110001001000010000
0000000111110001000000010000000000010000
0001000000000001000000001111000100010000
1111000011110000000011110000000100000000
1111000000011111000100011110000000000000
0001001000010000000000000000111111110000
1111111100011111000000011110000000010000
0000000011110000000000000001000011110000
0000000011110000000100010000001000010000
1111000000000001000011110000000011100000
1111000000000000000000000000000111100000
0000111100000000000100000001000000000000
0001000111110001000000000001000000010000
0000000000001111111100000000111100000000
0000000111110000000000000001000100000000
0001000011110001000100001110111011110000
0001000100010000000000000001000000000000
0000000000011111000100000001000000000000
0001000111111111111111110001000100000000
0000000000000001111100001111000000001111
0000111100010000000000001111111111110000
0001000100011111000011101111000111100000
1111000100010001111100010000111100010000
1111000000011111111100000001000111110000
1111000011110000111100001111000000000000
1111111100000000111100000000111100000000
1111111111100000111111111110111011110000
0000000100101111000000100001000100000000
0001000100001111000000011111000000000000
0001000000000000111111110000000000000000
0001000100000001000111111111111100000000
0010000111110000000100011111000111110000
0001000100010000111111100001111111110000
0001000100001111000000000000111100000000
0000111111110000111111111111000000000000
0010000100100000111100100000000000010001
1111000011111111111111110010000000000000
0000000011111111000100000001111100000000
1111111111110000111111110010000100010000
1111000000010000000000001111111100000000
0000000100000010000100000001111111110000
0000000100010000000011110000000000010000
0000000100000001111111110000000011110000
0001000000001111000000010001000000000000
1111111111100000111000001111000000000000
0001000100000001000100000000001000010000
1111000000001111111100000001000100010000
0000111100001111111111110000001000010000
0000000011110001000000000010111100000000
0000111100010001111100011111000011110000
0001111111111111000000010001001000000000
1111000011110000111100000001000000010001
0000110111110000000000000001111100000000
1111000111110000111111110001000111110000
1111111111100001111111110001000100010000
1111000100011111000100000000000000000000
0000111100000000000100010000000100000000
0000000100001111111100001111111011110000
0001111100001111000011111111000000010000
0010001000100001111100000001000011110000
0000000000000001000100000010000100000000
0001000000010000000100000010000100110000
0000111100010001000011111111000000000000
1111000011101111000011111111001000000000
0000000100001111000111110010000100010000
0000111111110000000100000000000000000000
1111000000001111111100010000000100000000
0001000011111111000011110000000100000010
0001001011110001000111110000000100010000
0001000100010001111111110000111111110000
0000000000000000111111110001000000010000
0000000000010000000111111111000000010000
0000000000001111111111110001000000000000
0001111111110000000011110000000100010000
0000000111110000111111100001000100000000
1111000000000010000111110001001000010000
0000111100000001000011110000000100000000
0000000011111111111100010001000000010000
1111000011111111000100000001000100000000
0000000111100001000100001111000011100000
0000000100100000000000011110111011110000
1111111100010000000111110001000100010000
0001111111110000000111111111111100000000
0001111100010001000000010001000100001110
0001111100000000000000000001000000010000
0001111111110000111100000000000000000000
0000000000000001000000000000000000000000
0000000111111111111100010001111100010000
0000111100001111000011111111111111110000
0001000000010000000100001111111100000000
0000000000010000000011110001000100000000
0000000000000000000000010000111100010000
1111000000010000000000000000000000000000
0000000111110000111100001111000011110000
1111000000000001111100001111000111110000
0001111100000000111100000000111111110000
0000111111111111111100000001000000000000
0000000100001111000100011111000000000000
0000111100000001000100000000000000010000
1111000111110000111100001111000011110000
0010111111110001000000001111000111110000
0000111100010000111100000000111100000000
0001000000001111000011111110000011110000
0000000011110000000000000001000011110000
1111111100000001111100000000000100000000
1111111100011111000000000000000100000000
1111000100011111000000001111000000000000
1111111111110000000011110000000111110000
0000000000000000000000011111000100010000
0000000011111111111100011111000000010000
1111000100001111111100000001000100000000
1111000111110000000000000000000000000000
0000000011110001001000010000000100010000
0000111100000000000100000000000100000000
0001111100000001111100000001111100000000
1111111100010000000100000001000111111110
1111000111110000000100000000000000000000
0000000000010000000000000001000100000000
0000111100000000000000001111000000000000
0000000011110001000000000000111111110000
0000000011111111000000011111000000000000
0001000100101111000000001111111100000000
0010001000001110000111110001001000100000
1111000011111111111100010000000000010000
0000000011110001000000000000000011110000
0001111100000000000111110000111111110000
1111000000010001111100010001000000000000
0001000011110000000111111110000100000000
1111111100010001111100000001111111110000
1111000100001111000000000001111100010000
1111000100000001000011111111111100000000
0000000100000001000111110001111100000000
0000111100000000111111110000000100000000
0000000000000001111111110010000100010000
1111000111110000000111111110111111100000
0000000000000001000111110000111111110000
0000111100011111000000001111000011110000
0000000000011111111100000001001000010000
1111111100000001000011110000000000000000
0001000000011111000100000000000000010000
0001000100000001111100001111000000000000
0001000011110010111100000010000100100000
0000111100000001111000000010001000000000
0000000000000001111111100011000100010000
0000000000001111000011110001001011100000
0001111111110000111111110000000000000000
0000111100010001000100010010000100010000
0000000000010010111100000001000000000001
0001000000100000111100010000111111110000
0000000000000000000100001111111111110000
0001000000010000000011111110111111110000
0000000011111111000000011111111111110000
1111000000000000000011110001000000000000
0001000000010001000100010000000000010000
1111000000100000111111110000000011110000
0000111100001111111111110000111100000000
0001000100000000000000000000000000010000
0000000000010000000000000000111100000000
0000000000001111000100000000000000010000
0000000000101111000000010000111111110000
0000000011110000111100001111000011110000
0000111100000001000011111111000000000000
1111000100000000000000000001000000010000
1111000011110000000100010000000000000000
1101111011011111111011101111111111100000
0000111111110000000000000010000100000000
0001111100000000000111110010000100000000
0001000111111111000011111111000000000000
0001111111111111000011111111111100000000
0001000000001111111111110000111111110000
0000000000000000000011110001000100010000
0001000000101111000000010000000100000000
1110000011110000000111110001000011110000
0000000000000000111100001111111111110000
0000000000001110111111111111000011100000
1110110111011111111111100000111011100000
1111111111110000000000000001001000000000
1111111100000000000100010000000000010000
1111000100000001111100001111000100000000
1111111100001111000011110010000011110111
0000111111110001000000011111000100010000
0001000100000001111100010000111111110000
1111000100011111000100011111000011100000
0000000100000001000000010001000000000000
1111000000000000000100000001000000010000
0001000000000001000111110010000100000000
0000111111111111111100000000111111100000
0001000000000000111100000000000100000000
1111000100000000000011111111000100000000
1111000000001111000100000001000000010000
0000111111110001000100010000000111110000
0000000000001111000000010000000100100000
0000000111100000111111100001000011010000
0000000011110000111100000000000000000000
0000000100000001000000000000000000000000
1111000111111111000111110000111100000001
1111000000001111111000001110110100000000
0001000011110000111111111111111100010000
0000000011110001000000000000000100010000
0000000100000000000000010000000000010000
1111000100010000000100010000000100000000
0001000011110000000000001111111111110000
0000000100010001001000000000000111110000
1110000011111111000011111111111100010000
1111111111110001000000000000000100100000
0001111100000000000011111111111100000000
0000000000000001000011110001000000010000
0011111100000000001000001101000011110000
0000111111111111111111110000111100000000
1111111111110000111111110000000000000000
0000111100000001000100010000000000000000
0001000011111110000000001111000000001111
0010000000001111000011101111111111100000
0001000011100000000000011110000000000000
0010111100001110111111111101111100000000
1111111100001111111111110000000011110000
1111000000011111111000001111000111110000
0000000111111111111100001110000000010000
0000111100011101111011111110111000010000
0001000100010000000000010010001000010000
0000001011110001000011101111000011110000
0001000100010001111100100011000100100000
0000001011110000000100010000000100000000
0000001111100000000011110001000000000000
0001000011110001000100010000000000000000
0000000111110001000000011111000000000000
0000000000000000111100000000000000000000
0001000100010001111000000011000100000011
0000000000000000111100010000000000010000
1111111100000000111100001111111100000000
0000000011110000000000011111111100010000
0001000000000000000000001111000100010000
0000000011110000000000000001000000000000
0001000100000000111011110001000011110000
0001111111111111000100010000000000000000
0000000100011110111111111110111100010000
1111000000010000111100010000111100010000
0000000011110000111100000000111100010000
0001000000000000000011110000111111110000
0000111100001110111011110000000000010000
0001001000010000000111111111001000010000
0000000000001111111111110000000000010000
0000000011110001111111111111000000000000
0001000100011111000000000000000100001101
1111111100001111000100011111111100000000
0000000000001110000011110000000000000000
0000000000000001000000000000000100100000
0000000100010000000000010000000100010000
0000000000000000111111110000111111110000
1111000000000001000100000000000000000000
1110111111111111111111111110111011110000
0000111100010000000011110000111100000000
0001000000101111111100000000000000000000
0001000000010000111100000001000000000000
0000000100010001000111110001111100000000
0001000000011111000011111110111100000000
0010001000001110111100011111111100100000
0000111100010001000000000000000000000000
1111111100000000111100000000000011110000
0001001000010001000000001111000000000000
