0000000100000000
1111111000000000
0000000100000000
0000001100000000
1111101100000000
1111110100000000
0000001000000000
1111110100000000
0000000000000000
1111110000000000
1111110000000000
1111101100000000
0000000100000000
1111101100000000
0000001000000000
0000000100000000
1111111100000000
1111111100000000
0000100000000000
0000001100000000
1111111000000000
0000001000000000
0000001100000000
0000010000000000
0000010000000000
0000001100000000
1111110100000000
0000011000000000
1111110000000000
1111110000000000
0000001000000000
1111110000000100
0000000000000000
0000000000000000
0000000000000000
0000000000000000
0000000000000000
0000000000000000
0000000000000000
0000000000000000
0000000000000000
0000000000000000
0000000000000000
0000000000000000
0000000000000000
0000000000000000
0000000000000000
0000000000000000
0000000000000000
0000000000000000
0000000000000000
0000000000000000
0000000000000000
0000000000000000
0000000000000000
0000000000000000
1111111100000000
0000000000000000
0000000000000000
0000000000000000
0000000100000000
0000000000000000
0000000000000000
0000000000000000
0000000100000000
1111111000000000
0000001000000000
0000001000000000
1111110000000000
1111110100000000
0000001000000000
1111111000000000
0000000100000000
1111110000000000
1111110100000000
1111110000000000
0000000000000000
1111101100000000
0000001000000000
0000000100000000
0000000000000000
1111111100000000
0000011000000000
0000001000000000
1111110100000000
0000001000000000
0000010000000000
0000001100000000
0000010000000000
0000001100000000
1111110100000000
0000010100000000
1111110100000000
1111110100000000
0000000100000000
1111111000000010
1111111100000000
1111111100000000
0000010100000000
1111111100000000
0000000100000000
0000000000000000
0000001100000000
0000000000000000
0000010000000000
1111111100000000
1111111000000000
1111111100000000
0000011000000000
1111111100000000
0000010100000000
0000000100000000
0000001100000000
1111111000000000
0000001000000000
0000010100000000
1111111100000000
0000001100000000
0000000100000000
0000101000000000
0000111100000000
0000010100000000
0000000000000000
0000000100000000
1111111000000000
0000000100000000
0000010000000000
0000000000000001
0000000000000000
0000000000000000
0000000000000000
0000000000000000
0000000000000000
0000000000000000
0000000000000000
1111111100000000
0000000000000000
0000000000000000
0000000000000000
0000000000000000
0000000000000000
0000000000000000
0000000000000000
0000000000000000
0000000000000000
1111111100000000
0000000000000000
0000000000000000
0000000000000000
0000000000000000
0000000000000000
0000000000000000
1111111100000000
0000000000000000
0000000000000000
0000000000000000
0000000000000000
0000000000000000
0000000000000000
0000000000000000
1111111100000000
0000000000000000
0000000100000000
1111111000000000
0000001100000000
0000001000000000
0000000000000000
0000000100000000
0000000100000000
0000001000000000
0000000100000000
0000001000000000
0000001100000000
0000001100000000
0000000100000000
0000000000000000
0000000100000000
1111111100000000
1111110100000000
0000000100000000
0000001000000000
0000000000000000
1111111100000000
0000001100000000
0000001100000000
0000000100000000
0000001000000000
1111110000000000
0000000100000000
0000001100000000
0000000100000000
0000001011111111
0000000000000000
0000000000000000
1111111100000000
0000000000000000
0000000000000000
0000000000000000
0000000000000000
0000000000000000
0000000000000000
0000000000000000
1111111100000000
0000000100000000
0000000000000000
0000000000000000
0000000000000000
0000000000000000
0000000000000000
0000000000000000
0000000000000000
0000000000000000
0000000000000000
0000000000000000
0000000000000000
0000000000000000
1111111100000000
0000000000000000
0000000000000000
0000000100000000
0000000000000000
0000000000000000
0000000000000000
0000000000000000
0000001000000000
1111101100000000
0000001100000000
0000010100000000
1111011000000000
1111101000000000
0000010000000000
1111101000000000
0000001000000000
1111010100000000
1111100000000000
1111001100000000
0000001000000000
1111010100000000
0000010000000000
0000001000000000
1111111000000000
1111110100000000
0000111100000000
0000011000000000
1111101100000000
0000010000000000
0000100100000000
0000100100000000
0000101000000000
0000011000000000
1111100000000000
0000110000000000
1111011100000000
1111100000000000
0000001100000000
1111100100000111
0000000000000000
0000000000000000
0000000000000000
0000000000000000
0000000000000000
0000000000000000
0000000000000000
0000000000000000
0000000000000000
1111111100000000
0000000000000000
0000000000000000
0000000000000000
0000000000000000
0000000000000000
0000000000000000
0000000000000000
0000000000000000
0000000000000000
0000000000000000
0000000000000000
0000000000000000
0000000000000000
0000000000000000
0000000000000000
0000000000000000
0000000000000000
0000000000000000
0000000000000000
0000000000000000
0000000000000000
0000000000000000
0000000000000000
1111111100000000
0000000000000000
0000000000000000
0000000000000000
0000000000000000
0000000000000000
0000000000000000
1111111100000000
0000000000000000
0000000000000000
0000000000000000
0000000000000000
0000000000000000
0000000000000000
0000000000000000
1111111100000000
0000000000000000
0000000000000000
0000000000000000
0000000000000000
0000000000000000
0000000000000000
0000000000000000
0000000000000000
0000000000000000
0000000000000000
0000000000000000
0000000000000000
0000000000000000
1111111100000000
0000000000000000
1111111100000000
0000000000000000
0000001000000000
1111110100000000
0000010000000000
0000001100000000
0000000100000000
0000001000000000
0000001100000000
0000001000000000
0000001000000000
0000001100000000
0000010000000000
0000001100000000
0000001100000000
0000000000000000
0000001100000000
1111111000000000
1111110000000000
0000001100000000
0000001000000000
0000000000000000
1111111000000000
0000010100000000
0000100000000000
0000000100000000
0000000100000000
1111101100000000
0000000100000000
0000010000000000
0000000100000000
0000001011111111
0000001000000000
1111110000000000
0000001000000000
0000010100000000
1111011100000000
1111101000000000
0000001100000000
1111101100000000
0000001000000000
1111100000000000
1111100000000000
1111010100000000
0000000100000000
1111011100000000
0000001100000000
0000001100000000
1111110100000000
1111111000000000
0000110100000000
0000011000000000
1111101100000000
0000010000000000
0000011100000000
0000100000000000
0000100000000000
0000011000000000
1111100100000000
0000101100000000
1111100100000000
1111101000000000
0000001000000000
1111101000000110
0000000000000000
0000000000000000
0000000000000000
0000000000000000
0000000000000000
0000000000000000
0000000100000000
0000000000000000
0000000000000000
0000000000000000
0000000000000000
0000000000000000
0000000100000000
0000000000000000
1111111100000000
0000000000000000
0000000000000000
0000000000000000
0000000000000000
0000000000000000
0000000000000000
0000000000000000
0000000000000000
1111111100000000
0000000000000000
0000000000000000
0000000000000000
0000000000000000
0000000000000000
0000000000000000
0000000000000000
0000000000000000
1111100100000000
0000010000000000
0000100000000000
1111001000000000
0001011100000000
0000111000000000
0000001000000000
0000100000000000
0000101000000000
0000111000000000
0000101000000000
0001001000000000
0001000100000000
0001010000000000
0000100100000000
1111111100000000
0000110100000000
1111110000000000
1110011100000000
0000011100000000
0000100000000000
1111111000000000
1111010100000000
0001001000000000
0001111000000000
0000000100000000
0000101100000000
1110011100000000
0000101000000000
0001010100000000
0000010000000000
0000110011111001
0000000000000000
0000000000000000
0000000000000000
0000000000000000
0000000000000000
0000000000000000
0000000000000000
0000000000000000
0000000000000000
0000000000000000
0000000000000000
0000000000000000
0000000000000000
0000000100000000
0000000000000000
0000000000000000
0000000000000000
0000000000000000
1111111100000000
0000000000000000
0000000000000000
0000000100000000
0000000000000000
0000000000000000
0000000100000000
0000000000000000
0000000000000000
0000000000000000
0000000000000000
0000000000000000
0000000000000000
0000000100000000
0000000000000000
0000000000000000
0000000100000000
1111111100000000
0000000100000000
0000000100000000
0000000100000000
0000000100000000
0000000000000000
0000000100000000
0000000100000000
0000000100000000
0000000100000000
0000000100000000
0000000000000000
1111111100000000
0000000000000000
0000000000000000
1111111100000000
0000000000000000
0000000100000000
0000000000000000
1111111100000000
0000000000000000
0000000100000000
0000000000000000
0000000000000000
1111111100000000
0000000000000000
0000001000000000
0000000000000000
0000000100000000
0000000000000000
0000000000000000
0000000000000000
0000000000000000
0000000000000000
0000000000000000
0000000000000000
0000000000000000
0000000000000000
0000000000000000
0000000000000000
1111111100000000
0000000000000000
0000000000000000
0000000000000000
0000000000000000
0000000000000000
1111111100000000
0000000000000000
0000000000000000
0000000000000000
0000000000000000
0000000000000000
0000000100000000
0000000000000000
0000000000000000
0000000000000000
0000000000000000
0000000000000000
0000000000000000
0000000000000000
0000000000000000
0000000000000000
0000000000000000
1111111100000000
0000000000000000
0000000000000000
0000000000000000
1111111100000000
0000000000000000
0000000100000000
0000000000000000
0000000100000000
0000000000000000
0000000000000000
1111111100000000
0000000000000000
0000000000000000
0000000000000000
0000000000000000
0000000000000000
0000000000000000
0000000000000000
0000000000000000
0000000000000000
0000000000000000
0000000000000000
0000000000000000
0000000000000000
0000000000000000
0000000000000000
0000000000000000
0000000000000000
1111111100000000
0000000000000000
0000000000000000
0000000000000000
0000000000000000
0000000000000000
0000000100000000
0000000000000000
0000000000000000
0000000000000000
0000000000000000
0000000000000000
0000000000000000
1111111100000000
0000000000000000
0000000000000000
0000000000000000
0000000000000000
0000000000000000
0000000000000000
0000000000000000
0000000000000000
0000000000000000
0000000000000000
0000000000000000
0000000000000000
0000000000000000
0000000000000000
0000000000000000
0000000000000000
1111111100000000
0000000000000000
0000000000000000
0000000100000000
1111110100000000
0000001000000000
0000001000000000
1111101100000000
1111111000000000
0000001000000000
1111111000000000
0000000100000000
1111110000000000
1111110000000000
1111101000000000
0000000100000000
1111101100000000
0000001000000000
0000000100000000
0000000000000000
1111111100000000
0000011000000000
0000010000000000
1111111000000000
0000001000000000
0000001100000000
0000001100000000
0000010000000000
0000010000000000
1111111000000000
0000010100000000
1111110000000000
1111110100000000
0000001000000000
1111110100000010
0000000000000000
0000000000000000
0000000000000000
0000000000000000
0000000000000000
0000000000000000
0000000000000000
0000000000000000
0000000000000000
0000000000000000
0000000000000000
0000000000000000
0000000000000000
0000000000000000
0000000000000000
0000000000000000
0000000000000000
0000000000000000
0000000000000000
0000000000000000
0000000000000000
0000000000000000
0000000000000000
0000000000000000
0000000000000000
0000000000000000
0000000000000000
0000000000000000
0000000000000000
0000000000000000
0000000000000000
0000000000000000
0000000100000000
1111111000000000
0000000100000000
0000001100000000
1111101000000000
1111110100000000
0000001000000000
1111110000000000
0000001000000000
1111101000000000
1111101100000000
1111100100000000
0000000100000000
1111101000000000
0000001000000000
0000000100000000
1111111100000000
1111111100000000
0000100000000000
0000010000000000
1111110100000000
0000001000000000
0000010000000000
0000010100000000
0000010100000000
0000010000000000
1111110000000000
0000011100000000
1111101100000000
1111110000000000
0000001000000000
1111110000000100
0000000000000000
0000000000000000
0000000000000000
0000000000000000
0000000000000000
0000000000000000
0000000000000000
0000000000000000
0000000000000000
0000000000000000
0000000000000000
0000000000000000
0000000000000000
0000000000000000
0000000000000000
0000000000000000
0000000000000000
0000000000000000
0000000000000000
0000000000000000
0000000000000000
0000000000000000
0000000000000000
0000000000000000
0000000000000000
0000000000000000
0000000000000000
0000000000000000
0000000000000000
0000000000000000
0000000000000000
0000000000000000
0000000000000000
1111111100000000
0000000000000000
0000000000000000
0000000000000000
0000000000000000
0000000000000000
0000000000000000
0000000000000000
0000000000000000
0000000000000000
0000000000000000
0000000000000000
0000000000000000
0000000000000000
1111111100000000
0000000000000000
0000000000000000
0000000000000000
0000000000000000
0000000000000000
0000000100000000
0000000000000000
0000000000000000
0000000000000000
0000000000000000
0000000000000000
0000000000000000
0000000000000000
0000000000000000
0000000000000000
0000000000000000
0000000000000000
0000000000000000
0000000000000000
0000000000000000
0000000000000000
0000000000000000
0000000000000000
0000000000000000
0000000000000000
1111111100000000
0000000000000000
0000000000000000
0000000000000000
0000000000000000
0000000000000000
0000000000000000
0000000000000000
0000000000000000
1111111100000000
1111111100000000
0000000000000000
0000000000000000
0000000000000000
0000000000000000
0000000000000000
0000000000000000
0000000000000000
0000000000000000
0000000000000000
0000000000000000
0000000000000000
1111111100000000
0000000100000000
0000000000000000
1111111100000000
0000000000000000
0000000000000000
0000000000000000
0000000000000000
0000000000000000
0000000000000000
0000000000000000
0000000000000000
1111111100000000
0000000000000000
0000000000000000
0000000000000000
0000000000000000
0000000000000000
0000000000000000
0000000000000000
0000000000000000
0000000000000000
0000000000000000
0000000000000000
0000000000000000
0000000000000000
0000000000000000
0000000000000000
1111111100000000
0000000000000000
0000000000000000
0000000000000000
0000000000000000
0000000100000000
1111110100000000
0000001000000000
0000001100000000
1111101000000000
1111110000000000
0000001000000000
1111110000000000
0000001000000000
1111100000000000
1111101100000000
1111100000000000
0000000100000000
1111100100000000
0000001100000000
0000000100000000
1111111000000000
1111111000000000
0000101000000000
0000010000000000
1111110000000000
0000001100000000
0000011000000000
0000011000000000
0000011100000000
0000010000000000
1111101100000000
0000100000000000
1111101000000000
1111101100000000
0000000100000000
1111101100000100
0000000000000000
0000000000000000
0000000000000000
0000000000000000
1111111100000000
0000000000000000
0000000000000000
0000000000000000
1111111100000000
0000000000000000
0000000000000000
1111111100000000
0000000000000000
1111111100000000
0000000000000000
0000000000000000
1111111100000000
0000000000000000
0000000100000000
0000000000000000
0000000000000000
0000000000000000
0000000100000000
0000000000000000
0000000000000000
0000000000000000
0000000000000000
0000000100000000
0000000000000000
0000000000000000
0000000000000000
0000000000000000
1111111100000000
0000000000000000
0000000000000000
0000000000000000
0000000000000000
1111111100000000
0000000000000000
1111111100000000
0000000000000000
0000000000000000
0000000000000000
0000000000000000
1111111100000000
0000000000000000
0000000000000000
0000000000000000
0000000000000000
0000000000000000
0000000000000000
1111111100000000
0000000000000000
1111111100000000
0000000000000000
0000000000000000
0000000000000000
0000000000000000
0000000000000000
0000000000000000
0000000000000000
0000000000000000
0000000000000000
1111111100000000
0000001100000000
1111101100000000
0000001100000000
0000011000000000
1111010000000000
1111100100000000
0000010000000000
1111100100000000
0000001000000000
1111010100000000
1111011100000000
1111001100000000
0000001000000000
1111010000000000
0000010100000000
0000001000000000
1111110100000000
1111111000000000
0001001000000000
0000011100000000
1111101000000000
0000011000000000
0000101000000000
0000101000000000
0000101000000000
0000100000000000
1111100000000000
0000111000000000
1111011100000000
1111011100000000
0000010000000000
1111100000001000
0000000000000000
0000000000000000
0000000000000000
0000000000000000
0000000000000000
0000000000000000
0000000000000000
0000000000000000
0000000000000000
0000000000000000
0000000000000000
0000000000000000
0000000000000000
0000000100000000
0000000000000000
1111111100000000
0000000000000000
0000000000000000
0000000000000000
0000000000000000
0000000000000000
0000000000000000
0000000000000000
0000000000000000
1111111100000000
0000000000000000
0000000000000000
0000000000000000
0000000000000000
0000000000000000
1111111100000000
0000000000000000
0000000000000000
0000000000000000
0000000000000000
0000000000000000
0000000000000000
0000000000000000
1111111100000000
0000000000000000
0000000000000000
0000000000000000
1111111100000000
0000000000000000
0000000000000000
0000000000000000
0000000000000000
0000000000000000
0000000000000000
0000000000000000
0000000000000000
0000000000000000
0000000000000000
0000000000000000
0000000000000000
0000000000000000
0000000000000000
0000000000000000
0000000000000000
0000000000000000
0000000000000000
0000000000000000
0000000000000000
0000000000000000
0000001000000000
1111110000000000
0000001000000000
0000010000000000
1111100000000000
1111101100000000
0000001000000000
1111110000000000
0000001000000000
1111100000000000
1111100100000000
1111011000000000
0000001000000000
1111100000000000
0000001100000000
0000001000000000
1111111000000000
1111111000000000
0000110000000000
0000011000000000
1111101100000000
0000001100000000
0000011000000000
0000100000000000
0000011100000000
0000010100000000
1111101000000000
0000100100000000
1111100100000000
1111101100000000
0000001000000000
1111101000000101
0000000000000000
0000000000000000
0000000000000000
0000000000000000
0000000000000000
0000000000000000
0000000000000000
0000000000000000
0000000000000000
0000000000000000
0000000000000000
0000000000000000
0000000000000000
0000000000000000
0000000000000000
0000000000000000
0000000000000000
0000000000000000
0000000000000000
0000000000000000
0000000000000000
0000000000000000
0000000000000000
0000000000000000
0000000000000000
0000000000000000
0000000000000000
0000000000000000
0000000000000000
0000000000000000
0000000000000000
0000000000000000
0000000000000000
0000000000000000
0000000000000000
0000000000000000
0000000000000000
0000000000000000
0000000000000000
0000000000000000
0000000000000000
0000000000000000
0000000000000000
0000000000000000
0000000000000000
0000000000000000
0000000000000000
0000000000000000
0000000000000000
0000000000000000
0000000000000000
0000000000000000
0000000000000000
1111111100000000
0000000000000000
0000000000000000
0000000000000000
0000000000000000
0000000000000000
0000000000000000
0000000000000000
0000000000000000
0000000000000000
0000000000000000
0000001100000000
1111101100000000
0000001100000000
0000011000000000
1111010000000000
1111100100000000
0000001100000000
1111101000000000
0000001000000000
1111011000000000
1111011100000000
1111001100000000
0000000100000000
1111010000000000
0000010000000000
0000001100000000
1111110100000000
1111111000000000
0001000100000000
0000100000000000
1111101000000000
0000011000000000
0000100100000000
0000101000000000
0000100100000000
0000100000000000
1111100100000000
0000111000000000
1111011100000000
1111100000000000
0000010000000000
1111100000001000
0000010100000000
1111011100000000
0000010100000000
0000100100000000
1110110100000000
1111010000000000
0000011000000000
1111011000000000
0000001100000000
1111000000000000
1111001000000000
1110101000000000
0000001100000000
1110111000000000
0000011100000000
0000010000000000
1111110000000000
1111110000000000
0001101100000000
0000110000000000
1111011100000000
0000100100000000
0000111000000000
0001000000000000
0001000000000000
0000110000000000
1111010000000000
0001010100000000
1111000100000000
1111001100000000
0000010100000000
1111010000001100
0000000000000000
0000000000000000
0000000000000000
0000000000000000
0000000000000000
0000000000000000
0000000000000000
0000000000000000
0000000000000000
0000000000000000
0000000000000000
0000000000000000
0000000000000000
0000000000000000
1111111100000000
0000000000000000
0000000000000000
0000000000000000
0000000100000000
0000000000000000
0000000000000000
0000000000000000
0000000000000000
0000000000000000
1111111100000000
0000000000000000
0000000100000000
0000000100000000
0000000000000000
0000000000000000
0000000000000000
0000000000000000
0000000000000000
0000000000000000
1111111100000000
1111111100000000
0000000000000000
0000000000000000
0000000000000000
0000000000000000
0000000000000000
0000000000000000
0000000000000000
0000000000000000
0000000000000000
0000000000000000
0000000000000000
0000000000000000
0000000000000000
1111111100000000
0000000000000000
0000000000000000
0000000000000000
0000000000000000
0000000000000000
0000000000000000
0000000000000000
0000000100000000
0000000000000000
0000000000000000
0000000000000000
0000000000000000
0000000000000000
0000000000000000
0000000100000000
1111111000000000
0000000100000000
0000001000000000
1111110000000000
1111111000000000
0000000100000000
1111111000000000
0000000100000000
1111101100000000
1111110100000000
1111101100000000
0000000100000000
1111110000000000
0000001000000000
0000000100000000
1111111100000000
1111111100000000
0000011000000000
0000001000000000
1111111000000000
0000001000000000
0000001100000000
0000010000000000
0000010000000000
0000001000000000
1111110100000000
0000010100000000
1111110000000000
1111110100000000
0000000100000000
1111110100000010
0000001000000000
1111110000000000
0000001000000000
0000001100000000
1111100100000000
1111101100000000
0000001000000000
1111110000000000
0000001000000000
1111100100000000
1111101000000000
1111011100000000
0000000100000000
1111100000000000
0000001100000000
0000000100000000
1111111100000000
1111111000000000
0000101000000000
0000010100000000
1111101100000000
0000001100000000
0000011000000000
0000011100000000
0000011100000000
0000010100000000
1111101100000000
0000100100000000
1111101000000000
1111101000000000
0000001000000000
1111101100000101
0000000000000000
0000000000000000
0000000000000000
0000000000000000
0000000000000000
0000000000000000
0000000000000000
0000000000000000
0000000000000000
0000000000000000
0000000000000000
0000000000000000
0000000000000000
0000000000000000
0000000000000000
0000000000000000
0000000000000000
0000000000000000
1111111100000000
0000000000000000
0000000000000000
0000000000000000
0000000000000000
0000000000000000
0000000000000000
0000000000000000
0000000100000000
0000000000000000
0000000000000000
0000000000000000
0000000000000000
0000000000000000
0000000000000000
0000000000000000
0000000100000000
1111111100000000
0000000100000000
0000000000000000
0000000100000000
0000000000000000
0000001000000000
0000000000000000
0000000000000000
0000000100000000
0000001100000000
0000000100000000
0000001000000000
0000000000000000
0000000100000000
1111111100000000
1111111100000000
0000001000000000
0000000000000000
0000000100000000
0000000000000000
0000010000000000
0000011000000000
0000001000000000
0000000000000000
1111111100000000
1111111100000000
0000001000000000
0000001000000000
0000000100000000
0000010000000000
1111100000000000
0000010000000000
0000100000000000
1110111000000000
1111010100000000
0000010100000000
1111011100000000
0000001100000000
1111000100000000
1111001100000000
1110110000000000
0000001100000000
1110111100000000
0000011000000000
0000010000000000
1111110000000000
1111110000000000
0001100100000000
0000101100000000
1111100000000000
0000100000000000
0000111000000000
0000111100000000
0000111100000000
0000101100000000
1111010000000000
0001010000000000
1111001000000000
1111010000000000
0000010100000000
1111010100001100
0000000000000000
0000000000000000
0000000000000000
0000000000000000
0000000000000000
0000000000000000
0000000000000000
0000000000000000
0000000000000000
0000000100000000
0000000000000000
1111111100000000
0000000000000000
0000000000000000
0000000000000000
1111111100000000
0000000000000000
0000000000000000
0000000000000000
0000000000000000
0000000000000000
0000000000000000
0000000000000000
0000000000000000
0000000000000000
1111111100000000
0000000000000000
0000000000000000
0000000000000000
0000000000000000
0000000000000000
0000000000000000
0000000000000000
0000000000000000
0000000000000000
0000000000000000
0000000000000000
0000000000000000
0000000000000000
0000000000000000
0000000000000000
0000000000000000
0000000000000000
0000000000000000
0000000000000000
0000000000000000
0000000000000000
0000000000000000
0000000000000000
0000000100000000
0000000100000000
0000000000000000
0000000000000000
0000000000000000
0000000000000000
0000000000000000
0000000000000000
0000000000000000
0000000000000000
0000000000000000
0000000100000000
0000000000000000
0000000000000000
0000000000000000
0000000000000000
0000000100000000
0000000100000000
1111111100000000
0000001000000000
0000000100000000
0000000000000000
0000000000000000
0000000100000000
0000001000000000
0000000100000000
0000001000000000
0000001000000000
0000001000000000
0000000100000000
1111111100000000
0000000100000000
0000000000000000
1111111000000000
0000000100000000
0000000100000000
1111111100000000
1111111100000000
0000001100000000
0000010000000000
0000000100000000
0000000100000000
1111111000000000
0000000100000000
0000001000000000
0000000000000000
0000000111111111
0000000000000000
0000000000000000
0000000000000000
0000000100000000
0000000000000000
0000000000000000
0000000000000000
0000000000000000
0000000000000000
0000000000000000
0000000000000000
1111111100000000
0000000000000000
0000000000000000
0000000000000000
0000000000000000
0000000000000000
0000000000000000
0000000000000000
0000000000000000
0000000000000000
0000000000000000
0000000000000000
0000000000000000
0000000000000000
0000000000000000
0000000100000000
0000000000000000
0000000000000000
0000000000000000
0000000100000000
0000000000000000
0000000000000000
0000000000000000
0000000000000000
0000000000000000
0000000000000000
0000000000000000
0000000000000000
0000000000000000
0000000000000000
0000000000000000
0000000000000000
0000000000000000
0000000000000000
0000000000000000
0000000000000000
1111111100000000
0000000000000000
0000000000000000
0000000000000000
0000000000000000
0000000000000000
0000000000000000
0000000000000000
0000000000000000
0000000000000000
1111111100000000
0000000000000000
0000000000000000
0000000000000000
0000000000000000
0000000000000000
0000000000000000
0000000100000000
1111111000000000
0000010000000000
0000000100000000
1111110100000000
1111111000000000
0000001100000000
1111111100000000
0000001100000000
1111111000000000
1111110100000000
1111110100000000
0000001100000000
1111110100000000
0000010000000000
0000000100000000
0000000000000000
1111111100000000
0000011100000000
0000010100000000
1111111000000000
0000001100000000
0000001100000000
0000100000000000
0000100100000000
0000010100000000
1111111000000000
0000010100000000
1111110100000000
1111111000000000
0000001100000000
1111110100000010
0000000000000000
0000000000000000
0000000000000000
0000000000000000
0000000000000000
0000000000000000
0000000000000000
0000000000000000
0000000000000000
0000000000000000
0000000000000000
0000000000000000
0000000000000000
1111111100000000
0000000000000000
0000000000000000
0000000000000000
0000000000000000
0000000000000000
0000000000000000
0000000000000000
0000000000000000
1111111100000000
0000000000000000
0000000000000000
0000000000000000
1111111100000000
0000000000000000
0000000000000000
0000000000000000
0000000000000000
0000000000000000
0000000000000000
0000000000000000
0000000000000000
0000000000000000
0000000000000000
0000000000000000
0000000000000000
0000000100000000
0000000000000000
0000000000000000
0000000000000000
0000000000000000
0000000000000000
0000000000000000
0000000000000000
0000000000000000
0000000000000000
0000000000000000
0000000000000000
0000000000000000
0000000000000000
0000000000000000
0000000000000000
0000000000000000
0000000000000000
0000000000000000
0000000000000000
0000000000000000
0000000000000000
0000000000000000
0000000000000000
0000000000000000
0000001000000000
1111110000000000
0000001100000000
0000010000000000
1111100000000000
1111110000000000
0000001100000000
1111110000000000
0000000100000000
1111100000000000
1111100100000000
1111011100000000
0000001000000000
1111011100000000
0000001100000000
0000001000000000
1111111000000000
1111111000000000
0000110000000000
0000010100000000
1111101100000000
0000001100000000
0000011100000000
0000011100000000
0000011100000000
0000011000000000
1111101000000000
0000101000000000
1111101000000000
1111101000000000
0000001000000000
1111101000000101
0000000000000000
0000000000000000
1111111100000000
0000000000000000
0000000000000000
0000000000000000
0000000000000000
0000000000000000
1111111100000000
0000000000000000
0000000000000000
0000000000000000
0000000000000000
0000000000000000
0000000000000000
0000000000000000
0000000000000000
0000000000000000
0000000000000000
0000000000000000
0000000000000000
0000000000000000
0000000000000000
0000000000000000
0000000000000000
0000000000000000
0000000100000000
0000000000000000
0000000000000000
0000000000000000
0000000000000000
0000000000000000
0000000100000000
1111111000000000
0000000100000000
0000001000000000
1111110000000000
1111111000000000
0000000100000000
1111111000000000
0000000100000000
1111110100000000
1111110100000000
1111110000000000
0000000100000000
1111110000000000
0000000100000000
0000000000000000
1111111100000000
0000000000000000
0000011000000000
0000001000000000
1111111000000000
0000001000000000
0000001000000000
0000001100000000
0000001100000000
0000001100000000
1111111000000000
0000010000000000
1111110100000000
1111110100000000
0000000100000000
1111111000000011
0000000000000000
0000000000000000
0000000000000000
0000000100000000
0000000000000000
0000000000000000
0000000000000000
0000000000000000
1111111100000000
0000000000000000
0000000000000000
1111111100000000
0000000000000000
0000000000000000
0000000000000000
0000000000000000
0000000000000000
0000000000000000
0000000000000000
0000000000000000
0000000100000000
0000000000000000
0000000000000000
0000000000000000
0000000000000000
0000000000000000
0000000000000000
0000000000000000
0000000000000000
0000000000000000
0000000000000000
0000000000000000
1111111100000000
0000000000000000
0000001100000000
1111111000000000
0000001100000000
0000001000000000
0000000100000000
0000000100000000
0000001000000000
0000000100000000
0000000100000000
0000001100000000
0000010000000000
0000001100000000
0000001100000000
0000000000000000
0000001000000000
1111111100000000
1111110100000000
0000001100000000
0000000100000000
0000000000000000
1111111000000000
0000010100000000
0000100000000000
0000001000000000
0000000100000000
1111110000000000
0000000100000000
0000001100000000
0000001000000000
0000001011111111
1111101100000000
0000001000000000
0000010100000000
1111011000000000
0001000000000000
0000101100000000
0000000100000000
0000011000000000
0000011100000000
0000100100000000
0000011000000000
0000110000000000
0000110000000000
0000110100000000
0000011000000000
0000000000000000
0000100100000000
1111110100000000
1110111100000000
0000010100000000
0000011000000000
1111111100000000
1111100100000000
0000110100000000
0001010000000000
0000000100000000
0000011000000000
1110111100000000
0000011000000000
0000111100000000
0000001100000000
0000100011111011
0000000000000000
0000000000000000
0000000000000000
1111111100000000
0000000000000000
0000000000000000
0000000000000000
0000000000000000
0000000000000000
0000000000000000
0000000000000000
1111111100000000
0000000000000000
0000000000000000
0000000000000000
0000000000000000
0000000000000000
0000000100000000
0000000000000000
0000000000000000
0000000000000000
0000000100000000
0000000000000000
0000000000000000
0000000000000000
0000000000000000
0000000000000000
0000000100000000
0000000000000000
0000000000000000
0000000000000000
0000000000000000
0000000000000000
0000000000000000
0000000000000000
0000000000000000
0000000000000000
0000000000000000
0000000000000000
0000000000000000
1111111100000000
0000000000000000
0000000000000000
0000000000000000
0000000000000000
0000000000000000
1111111100000000
0000000000000000
0000000000000000
0000000000000000
0000000000000000
0000000000000000
0000000000000000
0000000000000000
0000000000000000
0000000000000000
0000000000000000
0000000000000000
0000000000000000
0000000000000000
0000000000000000
0000000000000000
0000000000000000
0000000000000000
0000000000000000
0000000000000000
0000000100000000
0000000000000000
0000000000000000
0000000000000000
0000000000000000
0000000000000000
0000000000000000
0000000000000000
0000000000000000
0000000000000000
0000000100000000
0000000100000000
0000000000000000
0000000000000000
0000000000000000
0000000000000000
1111111100000000
1111111100000000
0000000000000000
0000000000000000
0000000000000000
0000000100000000
0000000100000000
0000000000000000
0000000000000000
1111111100000000
0000000000000000
0000000000000000
0000000000000000
0000000100000000
0000000000000000
0000000000000000
0000000000000000
0000000100000000
0000000000000000
0000000000000000
0000000000000000
0000000000000000
0000000000000000
0000000000000000
0000000000000000
0000000000000000
0000000000000000
0000000000000000
1111111100000000
0000000000000000
0000000000000000
0000000000000000
0000000000000000
0000000000000000
0000000000000000
0000000000000000
0000000000000000
0000000000000000
0000000000000000
0000000000000000
0000000000000000
0000000000000000
0000000000000000
0000000000000000
0000000000000000
0000000000000000
0000000100000000
1111111100000000
0000000000000000
0000000000000000
0000000000000000
1111111100000000
1111111100000000
0000000000000000
0000000000000000
0000000000000000
1111111100000000
1111111100000000
1111111100000000
0000000000000000
0000000000000000
0000000000000000
1111111100000000
0000000000000000
0000001000000000
0000000100000000
0000000000000000
0000000000000000
0000000100000000
0000000000000000
0000000000000000
0000000100000000
1111111100000000
0000000100000000
1111111100000000
0000000000000000
0000000000000000
1111111100000001
0000000100000000
1111111000000000
0000000100000000
0000001000000000
1111110100000000
1111110100000000
0000000100000000
1111111000000000
0000000100000000
1111110100000000
1111110100000000
1111110000000000
0000000000000000
1111110000000000
0000001000000000
0000000000000000
0000000000000000
0000000000000000
0000010100000000
0000001100000000
1111111000000000
0000000100000000
0000001100000000
0000001100000000
0000001100000000
0000001000000000
1111111000000000
0000010000000000
1111110000000000
1111111000000000
0000000100000000
1111110100000010
