0000110100000000
0000000100000000
0000110000000000
0001001100000000
0000000000000000
1111111100000000
0000000000000000
0001110100000000
0000000000000000
1111111100000000
0000001000000000
0001100100000000
0000000000000000
1111100000000000
0000000000000000
1111111100000000
0000000000000000
0000000000000000
0000000000000000
0001000000000000
0000000000000000
0001000000000000
0000000000000000
0000000000000000
0000000000000000
0000000000000000
0001001100000000
0000001000000000
0000000000000000
0010001000000000
0000000000000000
0000000000000000
0001011100000000
0000000000000000
0000000000000000
0010000000000000
0011001100000000
0000000000000000
0000000000000000
0000110000000000
0001011000000000
0000000000000000
0000010100000000
0010111000000000
0000000000000000
0000000100000000
0000000000000000
0000000000000000
0000000000000000
0001010100000000
0000000000000000
0000000100000000
0001100000000000
0000000000000000
0000101000000000
1111111100000000
0000010000000000
1111101100000000
0000000100000000
0000000000000000
0000000000000000
0000000000000000
0000001100000000
0000101011110110
1111100000000000
0000000000000000
1111101100000000
0001010000000000
0000000000000000
0000100100000000
1111111100000000
1110111000000000
0000000000000000
0000000000000000
0001000000000000
1111000100000000
0000000000000000
0100011000000000
0000000100000000
0000001100000000
0000000000000000
1111111100000000
0000000000000000
1111110100000000
0000000000000000
1111011100000000
0000000000000000
0000000000000000
0000000000000000
0000000000000000
1111010100000000
1111111100000000
0000000000000000
1110111000000000
0000000000000000
0000000000000000
1111001100000000
0000000000000000
0000000000000000
1110111000000000
1110001000000000
1111111100000000
0000000000000000
1111100100000000
1111010100000000
0000000100000000
0000100100000000
1110010000000000
0000000000000000
1111111100000000
0000100000000000
0000000000000000
0000000000000000
0000100000000000
0000000000000000
1111111100000000
1111010100000000
1111111100000000
1111101000000000
0000000000000000
0000111100000000
0011000000000000
0000000000000000
0000000000000000
0000001000000000
0000000000000000
1111111000000000
1111101100100101
