00000001
00000000
00000000
00000000
00000000
00000000
00000000
00000000
00000000
00000010
00000000
00000000
00000001
00000010
00000001
00000000
00000010
00000001
00000000
00000010
00000000
00000000
00000001
00000000
00000000
00000010
00000000
00000000
00000010
00000001
00000011
00000011
00000011
00000100
00000011
00000000
00000001
00000000
00000000
00000001
00000000
00000010
00000000
00000010
00000001
00000000
00000001
00000011
00000000
00000000
00000000
00000000
00000000
00000000
00000011
00000000
00000000
00000000
00000000
00000000
00000001
00000000
00000000
00000000
