00000111
00000000
00000000
00000011
00000001
00000000
00000000
11111110
00000000
00010010
11111111
00000000
11111110
00010011
00000111
00000001
00100111
00001101
00000000
00010100
11111111
00000001
00001001
11111111
00000000
00011110
11111111
11111111
00001101
00000111
00011010
00011110
00011000
11111010
00010100
11111111
00001000
00000000
00000000
00010001
11111111
00001111
00000000
00001111
00001001
11111111
00000100
00010110
00000000
11111111
11111111
11111111
11111110
00000010
00001110
00000000
00000001
00000000
00000000
00000000
00000100
00000000
00000000
11111101
00001110
00000000
11111100
11111110
00000000
00000000
00000000
00001001
00000000
11110111
00000000
00000000
00010010
11110110
11111011
11111111
11101110
11111010
00000000
11110100
00000010
00000101
11111011
00000000
00000000
11110000
00000001
00000000
11111001
11111100
11110010
11110000
11110011
00111101
11110110
00000000
11111101
00000000
11111111
11111001
11111110
11110111
00000000
11111001
11111011
11111111
00001101
11110100
00000000
11111110
00000001
00000001
00000110
00000001
00011101
00000001
11111111
11111111
00000000
00000010
11111101
00000001
00000000
00001011
