00000001
11111010
00000001
11011100
00000010
00000100
11111101
00000010
00000101
11111010
00001000
11111111
11111111
11101110
00000000
00000010
11111101
00000100
00000101
00000110
11111010
11111111
11111001
00000010
00000100
11111111
00011101
00000101
11111010
00001100
11110011
00000001
