00000011
00000011
11111111
00000010
00000000
11111101
00000100
11111110
00000010
00000000
00000001
11111101
00000010
00000011
00000010
00000001
00000010
00000001
00000001
11111111
00000000
00000000
11111111
00000101
00000001
00000010
00000000
00000001
11111111
00000110
00000010
00000001
