000010001111111111111100111111011111111011111011000000001111111011111111
111111111111111000000100111111111111110111111110000000111111111000000010
111111011111110111111010000000001111111100000010111111011111110000000011
000000001111110011111100000000001111111100000000000001001111110000000001
000000110000001111111101111111101111111111111111000000010000000011111111
111111010000010011111101111111111111110111111111000000011111110100000001
111111010000001000000000111111110000000100000100111111011111111100000010
000000011111110100000011000000111111110100000000111111100000000100000010
000000101111111000000100111111100000001011111100111111101111110111111100
000000000000000000000010000001000000001000000110111111100000001000000101
000000010000001100000000111111100000010011111111111111111111110011111100
111111100000001100000101111110110000000000000001111111111111101100000001
000000100000000100000010111111101111110100000001000000111111110100000001
111111000000000100000010000000001111111111111101000000000000001000000010
111111001111110011111101000000111111110111111111111111001111110111111100
111111000000001011111011000000101111110100000010000000100000001111111011
111111111111110100000010111111010000000011111111000001000000000100000111
000000101111110111111101000000010000010011111111000000000000011011111110
111111011111111000000100111111110000001000000011000000000000010100000111
111111110000010000000010111111111111110011111011111111010000001100000000
111111001111101111111010111110001111101011111100000000000000001000000100
000000000000000100000100111111001111111100000100000000110000010011111101
111110101111111111111111111110010000001000000001000001000000011100000111
111110101111110100000010000000101111101100000010000000110000000000000011
111110100000001011111100111111111111110000000000000001010000001100000000
111111001111110000000010111110101111111000000100111110110000000000000000
111111001111110000000010111111110000001100000100000001000000000000000000
111111110000001011111101000000110000010000000000000001001111110100000000
000000101111110000000000000000110000000011111110111111001111101100000000
111111100000010000000001000000111111110000000100000000111111111100000001
000000111111111100000001111111010000001111111101000000101111111000000010
000000111111111000000101000000000000010100000111000001010000001100000101
111111001111111111111111111111001111111000000000111111100000000111111011
111111011111111111111101111111101111110000000000000001001111110000000011
000000110000001111111101000001010000001011111101000000111111110111111011
000000001111110100000101000000111111110011111111000000011111110100000011
111111000000000011111100000001010000000011111111111111010000001000000011
111111100000010111111101111111111111101111111101111111101111110011111100
000000000000001100000010000000110000010000000010111111110000011011111101
000000101111111000000000000000101111111011111110000000100000010000000010
000000111111111100000010000000001111110100000011000001001111111000000000
000000101111111011111110111110110000001000000010111111011111111011111110
000000010000010000000100000000100000001011111111111111110000001111111111
111111111111111100000001000000011111110000000011000001000000001000000000
111111001111111100000000111111100000001011111111000000001111110111111101
000000011111110011111100000000000000010000000011111111100000001100000000
000000000000001000000100111111001111111111111101000000100000001100000100
000000010000001100000010111111100000001100000011111111010000000011111100
000001010000100100000011000000010000010000001000000000010000011000000111
111111110000000011111001111111111111101011111000111111101111111011111001
000000011111101100000100000000011111100000000011111111101111010111111111
000000000000000111111110111111010000000100000001111111010000000011111101
111111110000001000001000000001100000000111111111000001000000001000000000
000000100000010011111101000000010000011100000111000000110000001000000110
000000110000010100000100000001011111101111111111000001110000001011111001
000000001111011111111101111111011111011111111010111111101111111011111100
000000010000010000000011000000100000010011111110000001010000000011111011
111111101111111111111100000000000000000011111100111111001111100111111010
111111000000010000000000111111100000010100000000111111001111111000000010
000001010000100000000011000010001111110000000011000011010000000111111011
000001001111100111111001000000001111100011111100111111101111100011111110
111111010000001111111111111111101111110000000000111111000000001000000011
111111000000001000000011111111110000000100000010000000000000001011111111
000001000000000011111110000000111111110000000110000000111111111000000001
111110111111110011111110111110111111111000000011000000011111111000000001
000000000000001111111110000001011111111000000000000000000000010000000011
000001001111110100000010111110100000000000000010111110111111110000000011
111111011111110111111110111111110000001000000100000000100000000111111111
111111101111110111111101000000111111111000000001000000110000011000000000
000000110000000111111110000000100000001100000001000000100000010000000010
000000101111110000000011111111001111110011111101000000000000000111111110
111111110000000011111101000000111111111111111110000000100000001100000011
111111000000010000000010000000110000010100000001111111010000010100000000
111111010000000100000001000000011111111111111111000000110000010011111110
111111110000001000000001000000110000010100000010000000111111111100000100
111110101111110100000000111111000000001011111111000001000000001000000000
111111001111111100000001111111011111101011111011000000010000001000000011
111111100000001011111110000000100000010011111111111111000000001011111110
111111100000001111111101000000110000001000000100000001000000000011111101
111111011111110100000001000000000000010011111101111111001111110011111110
111101101111111100000000111110101111110000000001111101111111110111111011
000001010000000000000001000000001111110111111111111111110000000000000010
111111010000010100001000111111101111110100000001000000011111111100000011
000000110000001111111100111111101111110100000100000000100000001111111100
111111111111111111111110000000001111111000000011111111000000001011111101
000000100000000100000000000001000000000100000000111111010000000100000010
111110000000000011111110000000111111111000000000000000001111111111111100
111111001111100100000000111111011111110100000100111110101111110100000001
111111011111110100000011000000101111111100000000000001000000011000000000
111111101111110111111101111111010000000100000010111111010000000100000010
000001000000000000000010000000101111110111111101000001010000010100000011
111111101111101011111011111111111111101111111101111110111111101000000101
000000110000010100001011111111010000001100000100111111011111101100000001
111111010000001000000010000000011111110111111110111111110000000100000001
111111001111111111111100111111110000001111111010000001001111110000000001
000000100000000000000100111111011111111000000010000000110000001000000100
111110111111111000000110000000100000001000000110000000100000001111111100
111111111111110100000000000000001111111111111010111110011111110000000000
111111101111100111111100000000000000010000000010111111110000101000000011
111111111111111100000101111111010000000000000010111111101111110100000000
111110110000000000001010000001000000001100000010000001001111111111110111
000000101111101111111110111111111111101011111000111111001111101111111000
111110000000001000001100111111000000010100001100111111011111100011111110
000000011111110000001000000000000000001100000001111111111111101100000000
111111110000001011111100000000111111111100000001000000100000010111111111
000000110000100100000110000000101111111100000001111110111111101100000111
000000100000001011111111000000100000001000000010000000001111101111111011
000001000000010111111110000000010000000000000000111110111111100011111101
111111101111101011111011111110011111111111111110111111000000001000000010
000001000000001000000010000001001111110111111101111111100000001000000001
000000010000000111111111000001001111111000000001000000001111101011111011
000000001111110011111101111111011111101011111110111110000000001011111111
000001100000100011111110000001010000001000000110000000101111111100000101
000001001111111100000001111110011111110111111111111110111111110111111101
111111011111101011111000000001010000000011111101000001011111101111111101
000001000000000100000000000000100000000000000000000000000000000100000100
000001101111101111111101000001110000001100000001000000000000001000000001
111111001111110111111110111110111111100111111011111111011111110011111110
000000001111111011111001000001010000010000000011000000000000011000000111
111111100000011100000011000000010000011000000011111111101111110111111111
000000011111101100000001111111111111110011111111000000101111111000000100
000001011111111000000010000000100000011000000010000000110000001100000101
111111000000010000000000000000000000010011111111111111011111101011111110
000000001111111000000010111111100000000111111110111111101111110100000000
111110001111111000000101111110101111011111111110000000111111111011111001
111111100000010000000000111111011111111111111101111111111111110111111101
000000000000000011111110111111001111110011111100111110111111111100000001
111110110000000011111001111110000000000011111001111111101111111011111110
000000010000100100000101000000111111110100000100111111101111101000000001
000000101111111000000100000000010000000111111011000000110000010100000011
111111101111111111111111000000110000010000000010000000011111110000000100
000001000000000100000000111111001111110111111101111111111111110000000000
111111011111111000000000111111111111110011111101000000101111111111111011
111111100000000000000011000000011111110111111000000000001111101111111110
000001001111100111111000111111011111110011111010000001000000000100000001
000000100000001011111001000000110000000100000001000000010000010111111101
111111110000010011111110111111111111111000000010000001000000001100000101
000000011111101000000011000000011111110000000100111111110000000000000001
111111001111111100000010111111010000000000000000000001100000011000000110
111111011111110100000101000000010000001100000110000000000000000000000101
111110110000011100000010111110001111101011111101111110111111111011111001
111111010000001000000100000001001111111100000010111111010000000000000000
000000101111110000000010111111010000001100000001000000000000000111111111
000000011111101111111100111111110000001111111111000000001111111100000011
111111110000001000000110000000100000001100000010000001010000011011111111
111111011111101011111011111111101111111011111110000000010000010000000110
111111101111101111111111000001000000010000000000000001000000001111111100
111111111111110111111011000000010000010000000011000000010000001000000000
000001101111111111111111111111100000001111111100000000011111110111111110
111111010000001111111111000000111111111100000000111111001111110011111110
000000110000001000000011111110110000000111111111111110100000010111111101
000000001111111000000001111111000000000111111110111111111111111111111111
111111110000000000000011111110111111111100000001000000011111111100000011
111111000000001111111010000000001111111100000000111110111111110100000100
111111011111111100000000111111101111111111111100111111010000010000000100
111110101111101111111110111110011111101100000001000000100000001100000101
000000111111110111111011000000101111110100000000000010010000010000000011
000000000000001000000001000000011111110000000100111111011111111111111101
000000100000001100000000000000011111110011111110000000010000001100000110
000000010000000100000001111111010000000111111100000001010000000000000011
111111011111110111111011000001000000001011111000000001000000000111111011
111111100000000111111110111110101111111011111001000001100000001111111111
111111000000000100000011000000010000000000000000000001011111111000000100
000000010000000011111101000000000000000011111100111111110000001100000001
111111111111111000000000000001000000000011110111111111001111101011111100
000000110000011000000110000001101111111100000000000001010000001000000001
111111110000000100000111000000111111111000000010000001000000001111111111
000000110000010100000011000000000000000011111010000001010000001100000011
111110011111101100000011111111001111110100000011111111010000010100000000
000000001111110000000000111111111111111111111110000001110000001011111101
000000011111110000000101111111100000001011111101000000011111111100000001
111101101111111011111011111111100000001011111101111110100000000011111010
000000000000000000000001111111010000000000000000111111000000010000000011
111111110000000011111111000000101111110011111111111111001111110111111101
000001000000000011111110000000001111110111111111000001010000000111111110
000000010000001111111100111111111111101111111011000000100000100100000100
111111111111110011111100000000001111110100000011111111110000000000000001
111111001111110111111100000000001111111111111111111111111111110111111101
111111000000000111111110000000111111110011111110000000110000001011111100
111111100000001100000100000000010000001000000011000000110000010000000011
111111010000000100000011111111101111111100000011000000001111110111111111
111111100000000100000100111111101111110111111110111111010000000000000010
111111101111110011111110000000100000001000000000111111010000001011111111
111111001111111111111111111111110000001111111101000000010000001111111101
111111101111111100000100000001001111111011111110000000011111110100000001
000000001111110100000000111111010000000111111111000000010000001111111111
111111110000001100000100000000011111110100000100000000111111110011111110
111111010000000111111110111111100000000100000010000000101111110111111110
111111110000001000000001000000111111111100000000111111111111110000000010
111111110000010011111111111111010000001111111111111111000000010011111101
000000010000010000000011111111010000000000000000000001001111111011111110
111111001111111000000010111111100000001100000100111111001111110000000100
000000101111110011111110000001000000010000000000111111110000000011111011
000000000000001100000010111111111111110100000000111111000000001100000100
111111101111111011111110111111010000010011111111111111010000010000000010
000000110000000100000011000000010000000100000010111111001111110000000001
111110011111101011111101111111010000000100000001111111111111110111111111
000000000000001011111100111111010000011011111111111110110000000011111101
111111001111101011111001000000011111101011111100111111101111101111111000
000000011111111100000001000001110000001100000001000010000000100000000100
111111110000001011111111111111100000000011111111000001100000001000000010
000001010000000000000000000001000000000000000001000000000000000011111111
000000111111110111111001111111100000001111111110111111000000000000000001
000001110000100000000100000000110000010111111111111111101111101011111110
000001100000010100000000000000001111110100000010111111101111111000000001
000000110000001111111110000000001111110100000000111111100000000011111110
000000001111111011111101111111101111110111111011111110110000000111111011
000000111111110100000011000000011111111111111100000000101111111000000110
111111000000000000000001000000001111111000000000000000011111110011111111
000001000000010100000100111110111111100100000000111111011111111100000001
111111000000000011111100000000101111110011111011111111001111100100000001
111111001111111111111110000000100000000100000011111111000000000000000010
111110101111110011111110000000110000000000000000000000101111101100000000
111111000000001100000110111111111111110000000100111111010000000100000001
000000011111111011111001000001110000010100000100111111101111111100000000
000000010000000100000010111110110000000111111101111111111111101011111111
000001010000000100000110111110111111111111111100111111010000001100000001
000000010000000000000000000001011111110011111011000001101111111011111110
111111111111110100000011000000111111111100000000000000100000000000000000
000001001111111000000011000001001111110011111101000001011111110111111111
000001100000101000001001111110111111111100000010000001000000010100000010
111111100000001111111101000000010000010011111110111111111111111000000010
111111001111110011111100000000001111111100000001111111110000000011111111
000000100000010000000011000000100000000111111111000001010000010000000101
111111110000011100000100000001000000000111111111111101110000000011111111
000001011111111100000100000000010000000000000100111111000000001011111110
000000110000010100000011000001011111110011111110000000010000000000000000
111111010000000000000010000001000000010100000100000000110000000000000010
111111101111111111111101000001001111110111111110111111011111110000000100
000000010000001111111110000000000000000000000000111111101111110011111101
000001011111111100000000000000111111110111111010000000110000001100000111
000000001111111011111111000000100000001011111101111111100000010000000010
000000000000001100000100111111110000010011111011000001100000001011111101
111111101111111111111111000000111111111011111111000000101111101100000011
111111100000000011111100000000011111110111111101000000001111110011111110
000000110000000011111110000000110000010011111111111111101111110100000001
111110101111110111111110000000010000000100000010111111001111110111111110
000000111111111000000001000001000000001111111111000001001111110011111111
111111100000000011111101111111100000000000000100000000011111110000000001
000000101111101100000001111111010000000111111100111111110000000011111110
000000100000000100001001111111111111110000000010111110111111100111111011
111101111111100111111101000000110000010100000010111111010000010011111011
000010010000010100000111000001011111110111111110111111011111111011111001
000000110000010000000100111111011111111000000001111111110000000000000100
000010000000000000000100000000000000010000000011111110111111101111111101
111111001111111011111111000000100000000111111110111110010000000000000101
000010100000001011111110111111010000001011111101111101011111110111111010
000000010000000100000001000000000000001111111111111111011111111000000001
111111111111111011111100000001001111111000000000111111110000010000000100
111111111111111000000001111111010000001100000101000000000000010100000100
000000001111110000000100000000001111110011111010111111111111110100000000
111111110000000011111100000000100000001011111110111111000000010011111101
111101101111111011111110000000100000011111111110000000110000100000000101
000000100000001011111101000001000000000100000011000000000000000000000100
000001000000000111111111000000110000000000000001111111000000001000000110
111111100000000011111110111111100000000111111110000000000000011000000000
111111100000001000000101111111010000001100000110111110101111111100000001
000001100000100000000011000000000000000000000001000000011111111011111011
111110101111111000000100111111011111111100000011111101110000000100000011
000000010000000011111100111111111111111100000001000000110000000111111110
000000001111111011111110000000010000001000000110000000000000011100000011
111111010000001000000001000001011111111111111110000000000000000011111001
111110110000000000000000111111101111111100000001000000000000001011111001
000000001111110011111111111111100000001000000001000001001111111011111111
000000100000001111111101000001011111111100000001000001010000001000000110
111111100000000100000000111111011111111000000000000000001111110100000001
000000010000011011111101111111110000000000000000000000110000001111111110
000000110000000011111110000001010000010100000000111110011111101011111011
000000110000001100000010111111100000000100000000000001000000000111111110
111111110000000000000011111111010000010000000000000000111111111100000010
000001000000001111111101111111001111111011111010000000110000001100000000
000000001111111111111110000000111111101111111111111111100000000000000010
111111111111111000000010000000010000000100000000111111001111101011111110
000000110000001100000010111111010000000111111000111110110000001011111001
111111100000010000000011000001001111110000000011000000011111101100000011
111111000000000000000011111111011111110000000001000000100000010011111101
111110110000000111111011000000011111101111111110111111101111111000000001
111111001111111000000010000000011111101100000000111111111111110100000010
111111011111110011111001111111111111110111111011111110101111100011111011
000000000000001100000111111111000000000000001000000001010000010000000000
000000100000001100000000111110111111111100000100111110111111111111111111
000001000000001000000001000000001111110111111100000000010000000011111111
000001100000001000000000000000110000001111111100111111011111110100000010
000010000000010111111100000000010000010000000010111111000000010111111100
000000110000010000000101000000001111110111111001000001011111110011111011
000000110000010000000000111111010000000000000001000000001111110100000001
000000101111110111111101111111111111110011111100111111010000000000000010
000010000000001100001000111111111111111000000110111111110000000100000101
111111010000000011111110111111001111101011111101000010010000000100000001
000000001111111111111100111111000000001111111110000001001111110000000000
111111101111111011111101000000011111111011111010000010000000010000000011
111110111111111000000010000000001111111100000001111111101111101100000001
000000000000010100000001000001100000010111111110000000111111110111111100
111111110000001000000110111111100000000011111100111111101111111100000011
000000000000001111111111000000111111110111111101000000001111111111111100
000000110000000100000001111111011111111100000011000000100000000100000001
111111011111101011111000000000101111101000000001111111100000000100000010
000001000000001100000001000001010000010000000000000000010000100100000011
111111001111111100000001111110101111110111111111000001010000001100000101
000000011111101100000000111111101111101111111100000000000000100100000100
111111101111111111111100000001010000000000000001000010001111111011111111
111111111111111000000011000000101111110000000010111110110000000111111100
000000111111110111111100111111101111111000000011000000110000011100000000
111111000000000011111010000000011111110011111110000000101111111100000101
000000001111011011111101000000010000000011111111000000111111101100000000
111111010000001111111011000000001111110011111101000001000000010111111101
111111011111110011111010000000111111110111111110000001100000001100000011
111111010000010000000011111110110000001100000000000000001111111011111111
000000001111110011111110000000010000010100000100111111110000010000000001
000000010000001000000010111110111111101011111111111111001111100111111100
000000101111110100000010111111000000000111111010111111000000000100000101
000001110000011000001000000000111111101011111111000000101111111011111110
111111110000000100000000000001100000010011111110000001110000010000000001
000000100000000100000100000000000000010011111111000001100000001100001010
000000001111111000000011000000100000001011111101111111100000000000000000
111111000000000011111001111110110000000011111100111111000000101000000001
000000000000001111111111111111010000001011111011000010010000010000000011
000000011111110011111110111111100000001011111111000000011111111000000001
111111100000001000000000111111011111110000000101111111100000001100000010
000001000000000011111011111111000000000111111110000000010000010100000001
000001010000011111111010000001010000010111111101000000100000010000000011
000000100000010000000010000001001111110111111110000000001111110011111010
111111100000000100000000000000101111110011111010000001010000000100000101
000000100000001000000100111111100000001011111110111111001111111000000100
000000011111111000000001111111011111110111111100000000111111111100000000
000001001111110111111110000000011111111011111110000000010000010000000010
000000010000010011111011000000011111110111111001000000110000001000000001
111111011111111111111111000001100000001111111101000001010000011000000100
000000011111110000000000000000110000001011111100000000000000010011111111
000000001111111111111101111110111111110100000011000000111111111000000101
111111100000000111111011111110110000010011111111000001010000001000000001
000000000000001011111010000000100000010000000001111111100000000011110111
111111110000001000001010000000001111111100000101111101111111011111111011
111111011111110100000011000000000000010011111100000001000000010000000011
000000111111110011111110000000010000001111111011111110111111110100000010
000001001111110000000101000000100000000000000010000000100000001100000001
000000101111110100000000000000000000001011111111000000110000000100000100
000000111111110011111101000000011111110100000000000000011111111100000010
000000011111111100000001000000110000000100000001111111110000000111111111
000000010000010011111101111111101111110100000010000000111111110100000010
000000101111110000000000111111000000000111111100111111001111110111111110
000000101111111100000100111111110000010000000000111111011111110100000000
000000011111111000000100111111110000000111111100000000100000010100000001
111111101111111111111111000000011111111000000100000000011111110000000010
111111010000000000000011111111101111111111111111111111111111111111111111
111111100000001111111101000000011111110100000000111111001111111011111110
111111000000001011111111000001001111110011111111111111000000001111111110
000000111111110011111111000000101111111011111110000000011111111011111110
000000001111110111111101111111001111110111111111000001011111111111111110
000000100000010000000000111111010000010000000011111111000000000100000000
111111111111110111111110000000100000001000000001000000011111111100000100
111111000000010011111100000000101111110100000010111110110000000111111110
000001111111110111111100000001000000000100000001111111100000011011111100
111111111111110100000100111111111111111011111111000000101111111000000000
000000101111111111111111111110101111111111111100111110000000000011111100
000000010000000011111101000000011111111011111110000001000000001011111101
111111011111110100000001000000111111110100000000000000100000001100000000
111111011111110100000010111111011111111100000001000000000000010111111111
111111000000010000000010111110100000000011111111111111010000000000000001
111111011111110011111100111111110000001011111010000000100000001111111101
000000011111111100000001000000011111111100000010111111100000001100000011
000000000000001011111101111111001111111000000010111111011111111000000011
111111000000001011111111111111001111110100000000000001000000010111111111
111111010000001111111011000000010000000000000010000000010000000100000010
111111101111111111111101000000100000011000000010000000010000010100000011
111111101111111000000000000000100000001100000001111111110000001100000001
000000111111110000000010000001001111110111111110000001001111110100000001
111110111111110000000101111111110000001111111110000000110000011011111110
111111010000001111111101111111100000001000000000111111110000000100000000
111111110000000100000110111111110000000011111110000000110000001100000001
111111101111110100000001000000000000000100000000111111001111111000000000
000000010000000111111101000000111111111100000010111111101111110011111101
111111100000000111111100111111000000001000000100111111001111111100000001
000000110000010100000111111110110000000011111110111111001111110000000010
000001110000011011111111111110010000001111111101000001000000101000000110
111111010000000011111010111111001111111000000011000000010000000000000010
111111110000000011111101000001011111111111111111111111110000000111111101
000001001111110111111111000000000000001011111101111111111111110111111010
111111100000000100000011000000111111110100000011000001000000000000000000
000001001111111011111101000000000000001011111101111101110000010011111111
111111011111111000000011000001011111101100000001000000111111110111111110
111111100000001100000001111111001111111111111111000000111111110000000011
111111000000010000000000000000110000000111111101111110111111110011111111
000000010000010000000000000000100000001111111110000000111111110011111111
000000001111111011111110111111111111110111111100000000000000001011111110
000000000000000100000010000000101111110111111101000001110000010100000101
111111010000001111111011000000010000001011111100111110001111110111111001
111111110000000011111110000000110000001011111100000000011111110111111100
000000101111110100000010111110110000000111111110111110101111111111111011
111111110000001000000011111111011111110111111111000000110000011000000011
111111011111110100000001000001001111111011111101000000000000000100000000
000001010000000100000100111111010000010100000000000000001111111000000011
000001000000010111111111000001001111101111111111111111011111111100000001
000001001111111111111100000001101111111000000000000010010000010000000110
000000001111101100000001000000101111101000000001000010000000100100000000
111111100000000000000001000001011111110011110111000010100000010000000100
111111100000001011111111111111010000000111111011000001010000011011111010
000000101111110111111100111111111111110111111101000000000000000011111111
111111111111101100000010000001000000001100000011000010010000010100000101
000000010000000100000101000001101111111000000001000001000000000100000000
000000110000001000000110000000011111110100000011111111111111111011111011
000000010000000100000001000000010000010000000001111111011111111011111110
000001000000000100000101000000010000000111111101111110101111110111111100
111111111111111111111100111111010000000000000010111111101111111011111101
111111010000000000000001000000000000001011111101000000110000000111111111
000000100000001000000011000001010000010100000010000000101111111100000010
111111010000000100001000111111111111111011111011000000100000000111111011
111111111111110100000000111111001111111011111110000000001111101111111110
000001010000010000000001111111110000001000000000000000101111111100000011
111111100000000000000011000000000000000100000000000000011111110100000010
111111110000000111111111111111010000010100000000000000011111111100000100
000000010000001000000110111111100000000100000010111111111111101111111101
000000011111111111111100000000011111111000000001111111000000001011111011
000000011111110000000000000001000000000111111100111111010000000000000000
111111000000001111111110000000000000000000000001000000110000001000000101
111110110000001011111110000000010000001100000011111111100000000100000000
111101001111100111110110111110111111100111111010111111011111101111110111
000000101111101111111100111111110000000111111110000010010000011000000000
000000101111110011111110111111110000001011111101000010000000010100000001
000000100000001111111110111111001111111111111100111111010000000100000000
000000111111101011111011111111001111111011111011111111001111101100000001
000000100000000000000000111110111111110111111100111111111111110011111101
000000100000000000000001000000000000000111111110000000100000011000000101
000001000000000000000111111111011111111000000011000000000000001100000000
111110010000000111111011000000010000010011111011000000111111111111111101
111111100000000011111110000000001111110100000001111110111111101111111100
111111111111111100000010111110101111101111111110111111001111111111111001
111110001111011011110110111111011111110111111001000000001111100011111010
111111011111110111111100000000000000000000000001000000100000100000000001
111111001111110100000000000000100000001100000010000000011111111100000011
111110110000001111111111000000101111110000000001111111010000010000000001
111111011111111011111111111111000000000011111110000001110000001011111101
000000001111110011111110000000100000000000000100111111100000010100000100
000001010000010100000000000001001111101100000010000000101111110011111100
111111000000010100000100111111010000011000000010111111000000001011110111
111111110000001000000000000001000000001000000011000001000000000000000000
111110110000000100000001000000000000010100000000000001010000000000000011
000001011111111011111111000001100000010011111010000010000000001111111110
111111101111110111111110111111001111111011111111000000001111110011111001
000000110000000100000001111111111111111000000000000000010000010000000001
111111100000010011111110111111110000001011111100111111000000010000000010
111111010000000011111110111111100000010011111111000001010000001000000010
111111101111110011111101000001000000001100000010000000100000001111111010
111111111111111100000001111111001111111100000101000000010000001100000111
111111110000001111111010000000001111110011111010000000100000000011110101
000000000000000111111100000000001111110000000001000000010000000100000001
000000100000001100000010000000101111111011111111111111110000000111111111
111110110000001111111101111110110000001011111100111111111111110100000001
111110111111111100000010111110101111100100000001111110101111010111111110
000001001111111011111110000000001111110111111101111111001111111000000011
111111100000001011111011000000110000000100000010111111110000010100000101
111111100000001100000001000000011111111100000101000000100000000100000100
111111010000001000000110000000100000010100000011000000000000001000000001
000000111111111111111011000000010000000011111110111110101111101111111101
000000010000001000000011000001000000011011111111000000000000001111111110
111110010000000111111011111111001111111011111101111110101111110100000011
111111011111101111111101000001000000000011111111000000100000010100000110
000000111111101111111111111111100000001011111101111111011111111000000000
111111111111111100000000000001010000000011111101000000111111111100000011
000011011111111000000001000000000000011100000000111101000000000011111100
111111101111101011111011111111001111110111111010000000101111110100000000
111111101111110111111101000000001111111011111101000000001111111000000001
000000001111110100000010000000100000001100000011000000011111111100000000
000000110000000111111010111110010000001011111111111110110000000011111111
000001110000000011111111111110111111111011111001111111001111101011111001
000000110000001011111010000000010000001000000100111110100000000100000001
000010001111110000000000111101111111110011111011111101001111101011111110
111110111111110111111110111110101111110011111011000000010000000011111101
111111100000000000000010111111011111100100000000111111000000001111111110
111111110000010011111100111111001111111011111111111110000000001000000011
000000101111111000000011111101101111100111111100111110011111100000000100
000001000000011000000110000000011111111100000011000001110000011000000110
111111110000011111111100000001001111111111111010111111100000000111111101
000000110000010100000100000001011111110100001000000011000000010100001001
000000000000011111111101111111110000001000000011111111100000010000000010
111111100000101011111000000000001111111111111010000001011111111100000000
000001010000001011111101000001010000010000000100000000000000000011111111
000000010000001111111110000001000000000100000011111111000000000100000010
111111110000001000000000111111111111110111111111000000010000000111111111
000001010000010000000100000001101111101011111111000010100000001100000000
000000011111111111111111000000001111110000000100111111111111111100000100
111111101111111000000000000000001111111011111110111110111111111000000010
111111111111111111111101000000000000001000000100111111001111110000000100
000001001111111011111111000000011111111111111111111111010000001000000100
111111110000000111111101000000010000000111111111000000100000000000000001
000001000000001111111111111111111111101011111101000000100000000111111011
000001101111111011111101111111100000010100000110000000011111111000000010
111111100000010000000100111110001111110011111101111110101111101100000011
111111001111111100000110111111111111111000000100000000101111110100000011
000000011111111111111101111111101111110000000001000000001111101100000011
000000111111111000000010000000000000000111111011000000011111110011111101
111111111111111000000000111110011111101011111101000000010000000100000101
000000110000011100000110111111110000010011111101111111100000011000000010
000000000000000000000001111111001111110011111100000000010000000100000011
111111111111111111111100000000111111110011111100111111010000000111111110
000001010000010000000011111111100000000000000010000000010000001011111110
111111001111111000000001111111010000001100000010111111001111110111111110
000000100000000111111111111110100000000111111110000000010000000011111110
111111101111111111111111000000110000000100000001000000100000010100001000
000000000000001100000100000000000000000000000010111111100000001100000011
111111111111111000000001111111101111111011111101000000011111101111111010
111111100000000011111111000000110000001100000000111111111111111000000001
111110101111110111111011111111101111101111111100111101111111100111111101
000000101111111000000101000000100000001011111101000000001111110000000010
000001010000000100001000111111001111110000000001000000000000000111111110
000001000000001000000110111111111111110100000000000001000000000111111111
000000000000010000000010000001000000001111111101000001001111111000000001
000000111111111100000010111111100000000111111110111110011111110100000000
000010010000100100000001111110011111110100000101111110111111101000000110
000000101111111000000100000000110000001000000001000000010000000011111110
111111001111111011111111000000001111110000000010000000011111111111111101
000000110000011000000100000000100000000000000010111111011111111011111111
