00000000
00001110
00000000
00000001
00000000
00000000
00000000
00001010
00000000
00000000
00001011
00000000
00000000
00000001
00000000
11111111
00001000
00000000
00011000
00000000
00011010
00010110
11111111
00000010
00000000
00000000
11111111
00001101
00000000
11111101
00010011
00000101
00011000
00100100
00000001
00000010
00000000
00000000
00000000
00010111
00100000
00001010
11111111
00000111
00001000
00000000
00000100
00000010
00000000
00000000
00000000
11111111
00001001
00000000
00000000
00000000
00000000
00001101
00001100
00000110
00000000
00000000
00000001
11111111
00000001
11111011
00000000
00000000
00000011
00000010
00000000
11111100
00000000
00000000
11111011
00000000
00000000
00000011
00000000
00000000
11111110
00000101
11110110
00000000
11110110
11111000
00000110
00000000
00011010
00000000
00010001
11111011
00000000
00011111
11111001
11111110
11110110
11110010
00000001
11111111
00000000
00000000
00000000
11110111
11110011
11111101
00000000
11111110
11111101
00000000
00001001
11111111
00000001
00010101
00000000
11111111
11111100
11111111
00000000
00000000
00000000
11111011
11111011
11111110
00001101
00000000
00010011
00000010
