00000001000000110000001000000010111111000000010011111111000000000000001100000000
11111110111101111111100011111110111100011111110111111011111101111111110100000000
00000001111111101111111100000001111111010000001100000100111111110000010000000000
11111100111110100000010011111010000000100000011011111110000010000000101100000000
11111010111101011111110111111010111101101111110111111111111110011111101100000000
00000001000000111111111100000010111111110000010000000000111111010000001100000000
11111101111111111111111011111100000000001111111100000011000000010000010000000000
00000010111111100000010000000011111111100000000000000000111111010000001100000000
11110111111110010000000111111011111111010000010011111111000001000000010000000000
11110111000001110000011000000001000100000000101100000110000010010000000100000000
00000110000000100000001100000110000000111111110111111111111111100000000100000000
11111110000000001111111100000101000001001111110000000110111111110000000000000000
00000101000001100000001111111111000001011111110111111111000001000000010000000000
00000110000000110000011000001001000001010000011100001100000010001111110100000000
00000110000001110000001000000110000000100000001000000000000000001111111100000000
00000100000000000000000000000001000000000000001000000001000000010000010011111000
00000011111111011111111000000010000000000000001000000001111111101111110100000000
11111111000000010000000011111100111111101111100111111111000001010000010000000000
00000010000001000000000000000100000000101111111100000001111111000000001100000000
00000101000000000000010011111111000000001111111111111010111111110000000100000000
11111110111111010000000111111011111111110000000011111111000001011111110000000000
11111110111111010000010100000011111110010000010100000011000000000000011000000000
00000000000000000000010011111110111111101111111100000011000000001111111100000000
00000101000000000000010000000001111111000000010000000000111110110000011000000000
00000001000001010000011011111101111111001111110000000110000001010000001000000000
00000010111111000000000100000100111111000000010111111111111110010000001000000000
00000001000000111111111011111011000000111111101111111111111111110000000100000000
11111100111111001111111111111101000000000000001011111011000000111111111100000000
00000000111111111111111100000011000001110000010100000001000001000000010000000000
11111010111111101111101011111100111111101111110100000001111111011111110100000000
00000010111111001111110100000000000000111111101100000011000000110000000100000000
00000001000000011111110000000011111111000000000100000000111111101111111100000100
11111101000000110000001000000100000000100000000111111110111111001111111000000000
00000011111111101111111000000001111110100000001100000011111110110000011000000000
00000000000000100000001000000000000000100000000000000010111111000000010000000000
11111000111110111111111111111011000000000000001111111110111111010000001000000000
00000100111110010000000000000000111111000000000111111110000000100000010100000000
11111110000000100000000011111110111111110000001000000010000001100000011000000000
00000010111111101111110000000000000000100000001011111110111111101111110000000000
11111111000000011111111100000010000000110000001000000101000000011111111000000000
11111110111110101111110000000010111111000000000111111110000000100000010100000000
11111101000000100000001000000001000001110000010100000101000010000000010000000000
00000011111111010000000100000011000000111111111111111100111110101111110100000000
00000010111111011111111011111111111110111111111000000010000000110000001000000000
11111010111110101111110000000001111111101111101011111000111110011111111000000000
00000011000000110000011111111110000001010000001100000010000000110000001100000000
00000011111111100000001000000100111111011111110011111011000000010000001000000000
00000011000000100000000100000001000000001111110100000001000000000000000100000001
11111100111111110000001111111101000001000000000011111111000000000000001100000000
11111110111111110000000111111110111111010000000100000011000000111111110100000000
00000000000000001111110000000100000000110000000100000000000000001111110100000000
00000010111111101111111111111110111111101111110111111110111111111111110000000000
00000000111111100000000011111111000000110000001011111111000000001111110000000000
11111110111111110000001000000011111111110000001111111101000000111111111100000000
00000011000000010000001011111101111111001111111011111101000000111111111000000000
00000100111111000000000100000011111111001111110011111100111110110000001100000000
11111011111111000000001011111101000000110000001100000011000000101111110100000000
11111011111111011111110100000010000000110000000000000001000000101111111100000000
00000010111111000000001000000000111111110000000111111111111111011111110100000000
11111111000001000000010000000011000001010000001100000100000001001111111100000000
00000101000000110000001011111101000000001111111111111111111111001111110000000000
00000001111110110000001111111110000001001111110100001000000001110000011000000000
00000011111111011111111100000001000000011111111111111110111111110000000000000000
11111110000000010000001100000100000000011111111100000011000000001111110100000001
11111101000001000000000100000000111111101111111011111110111110111111110000000000
00001001111111001111000100000101000000011111011100000010111111111111111100000000
11111100000000100000001111111111000000110000001111111110111111101111110000000000
11111101111111101111110011111001111111001111110011111100111111010000000100000000
00000110111111101111110011111111111111001111101100000000000001011111111100000000
11111011111111101111110111111010111110010000001011111110000000110000010000000000
00000000111111110000010011111111000000101111110111111111111111001111110000000000
11111101111111001111101111111101111111001111110000000000111111001111111100000000
11111101111101111111110011111111111110111111011100000101111111000000000100000000
11111000111111000000010011110110000000010000000111111111000001010000001000000000
00000100000000110000000100000000000000111111101011111101000001000000001100000000
00000010000001010000001000000001000000101111110100000011000001101111111000000000
00001010000010000000011000000100000001100000010000000010111111011111111100000000
00000110000001110000011000000100000001110000010100000010000001010000001000000000
00000000000000011111110100000110000001011111111100001010000010100000011000000000
00000110000010000000011011111111000001011111111011111111000001010000011011111111
11111101000000001111111111111111111111111111111000000011000000101111110100000000
00000000111111010000010011111011111101110000001011111100111110110000001000000000
11111111000000010000010011111100111111100000010011111110111111001111110100000000
00001110000011000000010100000011000001100000001111111011111101111111100000000000
11111001111110000000000000000000111110110000000000000001000000000000001000000000
11111111111111100000001100000100111110010000001000000110111110101111111000000000
11111111000000001111111011111100111111100000001000000000111111000000001000000000
00000101111111010000011011111111111110110000010111111110111111001111101000000000
00000001000011000000100011110110111110101111100111111100000000001111111100000000
00001011111111001111101100000010111111101111100100000000000000001111110100000000
00000000000001000000000100000001000000110000010011111110000010000000001000000000
00000000111111000000010011111111000000000000011000000001111111110000000000000000
00000110000011010000101100001000000000110000010000000100000000111111111100000000
00000100000001001111110000000010111111111111101100001011000010110000010000000000
11111111111111101111111100000100000000000000010011111110000000000000011100000000
11111110111111100000001111111101000000110000000000000010000000100000010011101111
11111100000000110000000011111100000000010000010000000001111111010000000100000000
00000101111111101111001111111101000001010000000011110101000001010000110000000000
00000001111111000000010000000010000000011111111011111111111111010000010000000000
11111001111101100000000011111100111110011111100000000011000000011111100100000000
00001001111111011111100111111111000010010000011011110111000001010000001000000000
11111110000000011111101000000010000001001111111000000001000000010000001100000000
11111100000000110000001000000010000000110000000000000011000000111111111000000000
00000000111111101111111111111110111111101111101100000011000001011111110000000000
11111011111110001111011111111101111110111111101111111110000001000000000000000000
11111011111111000000001111111100000000100000010100000001000000011111011100000000
00000111000001001111110000000101000001110000010111111100000001010000101000000000
00000001000000100000001100000111000001110000001100000000111111001111110000000000
11111110111111010000010011111110000000011111101111111000111110111111111000000000
00000101000010010000000100000010000010010000101000000101000001110000011000000000
00001000000010000000000100001100000010010000001100000100000010000000011000000000
00000101000010000000000100000011000010000000010000000000000000101111111100000010
00000010111111000000001111111111000000001111111000000011111111000000000100000000
11111110111110100000001111111111000000010000001100001000111111011111110100000000
11111111000000010000001100000001000000010000000011111101111111111111111000000000
11111111000000000000011011111101000000000000000011110111111111011111110000000000
00000001111110011111110000000111000000000000000100000001111111100000000000000000
11111110000000110000001000000010000000110000001000000010000000101111101100000000
00000000111111010000001100000011000001000000000011111100000000100000001000000000
11111101000000011111111000000011111111100000000111111111111111001111101100000000
11111001111111100000000111111100111101111111101011111010111111001111110000000000
00000010000001010000000100001000000010110000010111111011000001101111111000000000
11111111000000010000000000000100111110101111111000000110000000100000010000000000
11111110000000110000000100000000111111011111110011111011111111101111111100000000
00000001000001010000010111111111111111000000001111111010111110011111101100000000
00000000000000101111110011111101111111101111110011111111000000110000000000000000
11111101000000011111110111111110111110110000000011111110111110101111101000000000
11111101000000110000000111111100111110100000000111111100000000000000000100010010
11111101111111000000010011111111000000110000000000000010111111110000010000000000
00000101000010010000001000000001111111100000001000000101111101111111100000000000
00000001000000100000000000000001000000100000010011111111111111010000001100000000
00000110000001011111110100000010000001100000001000000010111111101111101100000000
00000100000001010000010000000010111111010000000011111010111111101111110000000000
00000001000001010000001100000101000000000000000000000010111111101111110000000000
00000100000000111111111100000100111111011111110100000100000000111111110100000000
00000010000001011111110111111110000000000000000100000001000000110000000000000000
00001001000001001111111100000010000001011111110011111101111110111111100000000000
00000011111111111111101100000010111111100000000011111001111111011111101000000000
00000010000000000000010011111110000000010000001011111111111111011111110100000000
00000000000000100000010000000001000000010000001011111100000000011111111000000000
11111110000000001111111111111101111111011111110000000010111111001111101000000000
11111111111111000000000000000011111111000000000011111111000000011111110100000000
11111101000000000000000111111100111111101111110111111011111111010000001000000000
11111100111111010000001100000100000000000000001011111111111111011111111011111101
11111100111111111111111111111111111111010000001100000011000001000000010000000000
11111010000001110000101011111001000000110000110111110011111110110000101000000000
00000001111111110000000111111101111111101111111100000011000000001111110000000000
11111011111110011111110100000000111111100000000011111010000000101111111000000000
11111001000001010000100011111011000000000000010011111011111111000000011000000000
11111011000000001111110000000010111110111111110111111100000000101111101000000000
00000000000000000000010000000011111111000000010011111110000000010000000000000000
11111101000000101111111011111111000000110000000011111111000000001111101100000000
11110110111111101111011100000000111111011111110111111001000000100000001100000000
00000000111101111111110111111110111110001111111111111111000000001111011100000000
00000010111111101111111011111110111111100000001100000001000000110000001100000000
11111011111111010000000100000001111111101111111000000011111110110000000000000000
00000010000000100000001000000010000001110000100011111110000001000000000000000000
11111011111110011111110000000001111111000000001011111001111111110000010000000000
11111110000000000000001100000000000000111111111111111101000000010000000000000000
11111011000000100000001011111110111111100000000000000001000000100000000000001111
00000000111111000000000111111111111111010000010111111100000000100000000100000000
11111110111111110000011111111010000000110000011111111110111111100000000100000000
00000011000000101111111011111111000001001111111111111101111111010000001100000000
11111110111111111111110100000010000010000000001011111010000001000000000100000000
11111101111111110000000011111101000000111111111111111110111111001111111100000000
11111110000000010000011000000010111111011111111011111000111111001111101100000000
00000011000001001111111111111111000000100000001100000011111111000000000000000000
00000000111111110000000100000100000001010000001011111100111110110000001100000000
11111101000010000000000000000101000010110000011011111011111110111111110000000000
11111111000001101111111100000000111111111111110111111011111111101111101100000000
11111101000000100000000000000100000000000000001011111111111111010000000100000000
11111110000000110000000011111101000001001111111000000010000000111111111100000000
00000100000000000000010000000011000001010000001100000011000001100000010100000000
00000101000001001111110111111110000000100000000000000000111111010000000000000000
00000000000000000000000011111101000001000000000000000011000001001111111100000000
00000000000000101111111011111101000000011111110111111111000000010000001011111100
11111111000000110000010111111101000000110000000100000101000000111111111000000000
11111001000100100000000011111010000100110000001011111100000010110000000100000000
11111111000000100000000011111101000000111111111100000000111111101111110000000000
00000110111111010000000000000100111110111111011111111101000000011111100000000000
11111111000011010000001000000011000001010000001111111100000001111111101000000000
00000101000001001111110100000101000000001111100111111110111110111111100000000000
11111100111111001111110000000001111111010000000011111110111111000000000000000000
00000011000000101111111100000000000000101111110100000010000000111111111000000000
00000000000001001111110100001010000001011111100000000101111111101111010100000000
00000100111110111111110111111101111101001111100111111110111100111111101000000000
11111011000001001111110100000001000000010000001011111011000000011111111000000000
00000001000000101111110011111100111111100000000100000000000000101111110100000000
00000000111111111111101100000001111111100000000000000010111111000000000100000000
11111111111111001111111111111111111110111111111111111111000000001111111000000000
00000011000001000000001111111101000000001111111111111111000001001111100100000000
11111110000000101111110011111101111111011111111000000011000000101111111011101101
00000100111111111111110011111101000000101111110011111110111111000000001000000000
11111100000000000000001011111111111111011111101000000011000000101111101100000000
00000000000000110000001011111101111111111111111111111110000000111111110000000000
00000011000001100000110100000000000000010000010100000000000000110000011000000000
00000001111111011111111011111111000000100000000000000000111111001111100100000000
00000001000001001111111100000000111110110000011111110111000001010000100100000000
11111110111111100000010000000100111111000000001100000100111111100000010000000000
00000000000001000000011011111100000000110000000011111100000000100000011000000000
00000001000001010000011100000001000000100000000000000010000000100000011100000000
11111101000000000000010111110110000000110000001111110111000000110000111100000000
00000000111110101111100100000000000000101111111111111100111111111111110100000000
00000010000000011111111100000000000000111111111100000010000000001111110000000000
11111100111110001111101111111011111110111111100100000100111111111111110000000000
11111100111111001111111011111011111110101111111111111010111111000000011100000000
11111111111110100000000011111100000000111111110011111110000000110000010000000000
11111100000000010000000111111101111110111111111011111011000000010000010011101101
11111111000000001111111011111101000000110000010000000100111111011111111000000000
11111100111111001111111111111110000000011111111100000011111111000000001000000000
00000000000000100000001011111100000001000000001100000011111111010000010000000000
00000001000001001111110000000001111111010000000011111110000000001111110100000000
00000000000000010000010011111101000000000000000111111100111111000000000000000000
00000000000000000000000000000011000000011111110100000010000000110000001100000000
00000000111111000000001111111110111111001111110100000001111111110000001100000000
00000001111111101111110000000100000000011111110100000001000001000000010000000000
11111101111111001111110111111111111111010000001111111110111111001111110000000000
11111111111111100000000011111101000000001111110000000001000000000000000100000000
11111101111111110000010111111111000000111111110111111101000000111111111000000000
00000010000000100000001111111100000000101111110100000010111111011111111000000000
00000000111111011111110000000011111111011111111000000011000000110000000100000000
00000011000000000000010000000011111111111111110000000010000000010000000100000000
11111111000000010000001011111111000000111111110011111111000000010000000000000000
00000010000000110000001100000011000000000000001100000011000000100000000000000001
00000001111111110000001100000001111111010000001100000010000000110000010000000000
11111101000001000000010011111001111111010000001011111110111110111111101000000000
00000010111111010000000100000011111111001111111000000010111111001111110100000000
00000010000001011111111111111110000000010000000111111011111111010000001000000000
11111111000000110000000011111100111110110000001111111011111111001111110100000000
00000100000000110000000111111101111110111111101011111100111111011111100100000000
00000011111111111111111111111111111111011111111111111110000000001111111000000000
11111110000000100000001000000000111111101111110000000010000000111111110000000000
00000011000000010000100011111110000000010000010000000000111111001111101000000000
00000000000000000000010011111110000000001111110111111011111111101111100100000000
00000001111111111111111000000011000000110000001100000000111111001111110100000000
00000000111111010000001100000011000000011111110000000011000000110000001000000000
00000010000000100000011000000010000011000000010111111101111111100000001000000000
00000000000001010000001111111111000000010000000011111101000001000000001100000000
11111111111111001111110000000001111111000000000011111100000000101111111000000000
11111111000000010000001011111101000000001111101100000010111111000000001100000011
00000100000000010000000000000000111111100000000100000001000001010000000100000000
11111000000001001111101011111101000010011111110000000011000011001111101000000000
00000100111111100000000100000011000000100000000111111110111111011111111100000000
00000011000010010000011111111110000000110000001011111111111110111111100000000000
00000011000000001111101000000001000001011111111011111110000000111111101100000000
11111111000000100000000011111111000000100000000011111010000000011111111000000000
00000011111111000000010000000001000001001111111100000010111111001111110000000000
11111100000001010000001000000011111111110000010111111111000000001111110100000000
00000010000000110000011100001001000000001111110000000101111110101111101100000000
00000110000001000000100011111100111110100000011111110111111101010000010100000000
00000000000000100000000000000001000001000000010000000011000001000000001100000000
11111111111111111111110100000100000000000000000100000001000001001111110100000000
11111011111111010000000100000010111111001111111100000011111111111111101100000000
11111111111111000000000100000101111111101111110111111101000000110000001100000000
00000010000000001111111000000110000001101111111100000101000001001111111100000000
11111101000000000000001011111111000000110000001111111111000000011111111111100100
