00001000111111111111110011111101111111101111101100000000111111101111111100000000
11111111111111100000010011111111111111011111111000000011111111100000001000000000
11111101111111011111101000000000111111110000001011111101111111000000001100000000
00000000111111001111110000000000111111110000000000000100111111000000000100000000
00000011000000111111110111111110111111111111111100000001000000001111111100000000
11111101000001001111110111111111111111011111111100000001111111010000000100000000
11111101000000100000000011111111000000010000010011111101111111110000001000000000
00000001111111010000001100000011111111010000000011111110000000010000001000000000
00000010111111100000010011111110000000101111110011111110111111011111110000000000
00000000000000000000001000000100000000100000011011111110000000100000010100000000
00000001000000110000000011111110000001001111111111111111111111001111110000000000
11111110000000110000010111111011000000000000000111111111111110110000000100000000
00000010000000010000001011111110111111010000000100000011111111010000000100000000
11111100000000010000001000000000111111111111110100000000000000100000001000000000
11111100111111001111110100000011111111011111111111111100111111011111110000000000
11111100000000101111101100000010111111010000001000000010000000111111101100000001
11111111111111010000001011111101000000001111111100000100000000010000011100000000
00000010111111011111110100000001000001001111111100000000000001101111111000000000
11111101111111100000010011111111000000100000001100000000000001010000011100000000
11111111000001000000001011111111111111001111101111111101000000110000000000000000
11111100111110111111101011111000111110101111110000000000000000100000010000000000
00000000000000010000010011111100111111110000010000000011000001001111110100000000
11111010111111111111111111111001000000100000000100000100000001110000011100000000
11111010111111010000001000000010111110110000001000000011000000000000001100000000
11111010000000101111110011111111111111000000000000000101000000110000000000000000
11111100111111000000001011111010111111100000010011111011000000000000000000000000
11111100111111000000001011111111000000110000010000000100000000000000000000000000
11111111000000101111110100000011000001000000000000000100111111010000000000000000
00000010111111000000000000000011000000001111111011111100111110110000000000000000
11111110000001000000000100000011111111000000010000000011111111110000000100000000
00000011111111110000000111111101000000111111110100000010111111100000001000000000
00000011111111100000010100000000000001010000011100000101000000110000010111111010
11111100111111111111111111111100111111100000000011111110000000011111101100000000
11111101111111111111110111111110111111000000000000000100111111000000001100000000
00000011000000111111110100000101000000101111110100000011111111011111101100000000
00000000111111010000010100000011111111001111111100000001111111010000001100000000
11111100000000001111110000000101000000001111111111111101000000100000001100000000
11111110000001011111110111111111111110111111110111111110111111001111110000000000
00000000000000110000001000000011000001000000001011111111000001101111110100000000
00000010111111100000000000000010111111101111111000000010000001000000001000000000
00000011111111110000001000000000111111010000001100000100111111100000000000000000
00000010111111101111111011111011000000100000001011111101111111101111111000000000
00000001000001000000010000000010000000101111111111111111000000111111111100000000
11111111111111110000000100000001111111000000001100000100000000100000000000000000
11111100111111110000000011111110000000101111111100000000111111011111110100000000
00000001111111001111110000000000000001000000001111111110000000110000000000000000
00000000000000100000010011111100111111111111110100000010000000110000010000000000
00000001000000110000001011111110000000110000001111111101000000001111110000000001
00000101000010010000001100000001000001000000100000000001000001100000011100000000
11111111000000001111100111111111111110101111100011111110111111101111100100000000
00000001111110110000010000000001111110000000001111111110111101011111111100000000
00000000000000011111111011111101000000010000000111111101000000001111110100000000
11111111000000100000100000000110000000011111111100000100000000100000000000000000
00000010000001001111110100000001000001110000011100000011000000100000011000000000
00000011000001010000010000000101111110111111111100000111000000101111100100000000
00000000111101111111110111111101111101111111101011111110111111101111110000000000
00000001000001000000001100000010000001001111111000000101000000001111101100000000
11111110111111111111110000000000000000001111110011111100111110011111101000000000
11111100000001000000000011111110000001010000000011111100111111100000001000000000
00000101000010000000001100001000111111000000001100001101000000011111101100000000
00000100111110011111100100000000111110001111110011111110111110001111111000000000
11111101000000111111111111111110111111000000000011111100000000100000001100000000
11111100000000100000001111111111000000010000001000000000000000101111111100000000
00000100000000001111111000000011111111000000011000000011111111100000000111011100
11111011111111001111111011111011111111100000001100000001111111100000000100000000
00000000000000111111111000000101111111100000000000000000000001000000001100000000
00000100111111010000001011111010000000000000001011111011111111000000001100000000
11111101111111011111111011111111000000100000010000000010000000011111111100000000
11111110111111011111110100000011111111100000000100000011000001100000000000000000
00000011000000011111111000000010000000110000000100000010000001000000001000000000
00000010111111000000001111111100111111001111110100000000000000011111111000000000
11111111000000001111110100000011111111111111111000000010000000110000001100000000
11111100000001000000001000000011000001010000000111111101000001010000000000000000
11111101000000010000000100000001111111111111111100000011000001001111111000000000
11111111000000100000000100000011000001010000001000000011111111110000010000000000
11111010111111010000000011111100000000101111111100000100000000100000000000000000
11111100111111110000000111111101111110101111101100000001000000100000001100000000
11111110000000101111111000000010000001001111111111111100000000101111111000000000
11111110000000111111110100000011000000100000010000000100000000001111110100000000
11111101111111010000000100000000000001001111110111111100111111001111111000000010
11110110111111110000000011111010111111000000000111110111111111011111101100000000
00000101000000000000000100000000111111011111111111111111000000000000001000000000
11111101000001010000100011111110111111010000000100000001111111110000001100000000
00000011000000111111110011111110111111010000010000000010000000111111110000000000
11111111111111111111111000000000111111100000001111111100000000101111110100000000
00000010000000010000000000000100000000010000000011111101000000010000001000000000
11111000000000001111111000000011111111100000000000000000111111111111110000000000
11111100111110010000000011111101111111010000010011111010111111010000000100000000
11111101111111010000001100000010111111110000000000000100000001100000000000000000
11111110111111011111110111111101000000010000001011111101000000010000001000000000
00000100000000000000001000000010111111011111110100000101000001010000001100000000
11111110111110101111101111111111111110111111110111111011111110100000010100000000
00000011000001010000101111111101000000110000010011111101111110110000000100000000
11111101000000100000001000000001111111011111111011111111000000010000000100000000
11111100111111111111110011111111000000111111101000000100111111000000000100000000
00000010000000000000010011111101111111100000001000000011000000100000010000000100
11111011111111100000011000000010000000100000011000000010000000111111110000000000
11111111111111010000000000000000111111111111101011111001111111000000000000000000
11111110111110011111110000000000000001000000001011111111000010100000001100000000
11111111111111110000010111111101000000000000001011111110111111010000000000000000
11111011000000000000101000000100000000110000001000000100111111111111011100000000
00000010111110111111111011111111111110101111100011111100111110111111100000000000
11111000000000100000110011111100000001010000110011111101111110001111111000000000
00000001111111000000100000000000000000110000000111111111111110110000000000000000
11111111000000101111110000000011111111110000000100000010000001011111111100000000
00000011000010010000011000000010111111110000000111111011111110110000011100000000
00000010000000101111111100000010000000100000001000000000111110111111101100000000
00000100000001011111111000000001000000000000000011111011111110001111110100000000
11111110111110101111101111111001111111111111111011111100000000100000001000000000
00000100000000100000001000000100111111011111110111111110000000100000000100000000
00000001000000011111111100000100111111100000000100000000111110101111101100000000
00000000111111001111110111111101111110101111111011111000000000101111111111111101
00000110000010001111111000000101000000100000011000000010111111110000010100000000
00000100111111110000000111111001111111011111111111111011111111011111110100000000
11111101111110101111100000000101000000001111110100000101111110111111110100000000
00000100000000010000000000000010000000000000000000000000000000010000010000000000
00000110111110111111110100000111000000110000000100000000000000100000000100000000
11111100111111011111111011111011111110011111101111111101111111001111111000000000
00000000111111101111100100000101000001000000001100000000000001100000011100000000
11111110000001110000001100000001000001100000001111111110111111011111111100000000
00000001111110110000000111111111111111001111111100000010111111100000010000000000
00000101111111100000001000000010000001100000001000000011000000110000010100000000
11111100000001000000000000000000000001001111111111111101111110101111111000000000
00000000111111100000001011111110000000011111111011111110111111010000000000000000
11111000111111100000010111111010111101111111111000000011111111101111100100000000
11111110000001000000000011111101111111111111110111111111111111011111110100000000
00000000000000001111111011111100111111001111110011111011111111110000000100000000
11111011000000001111100111111000000000001111100111111110111111101111111000000010
00000001000010010000010100000011111111010000010011111110111110100000000100000000
00000010111111100000010000000001000000011111101100000011000001010000001100000000
11111110111111111111111100000011000001000000001000000001111111000000010000000000
00000100000000010000000011111100111111011111110111111111111111000000000000000000
11111101111111100000000011111111111111001111110100000010111111111111101100000000
11111110000000000000001100000001111111011111100000000000111110111111111000000000
00000100111110011111100011111101111111001111101000000100000000010000000100000000
00000010000000101111100100000011000000010000000100000001000001011111110100000000
11111111000001001111111011111111111111100000001000000100000000110000010100000000
00000001111110100000001100000001111111000000010011111111000000000000000100000000
11111100111111110000001011111101000000000000000000000110000001100000011000000000
11111101111111010000010100000001000000110000011000000000000000000000010100000000
11111011000001110000001011111000111110101111110111111011111111101111100100000000
11111101000000100000010000000100111111110000001011111101000000000000000000000000
00000010111111000000001011111101000000110000000100000000000000011111111100000000
00000001111110111111110011111111000000111111111100000000111111110000001100000101
11111111000000100000011000000010000000110000001000000101000001101111111100000000
11111101111110101111101111111110111111101111111000000001000001000000011000000000
11111110111110111111111100000100000001000000000000000100000000111111110000000000
11111111111111011111101100000001000001000000001100000001000000100000000000000000
00000110111111111111111111111110000000111111110000000001111111011111111000000000
11111101000000111111111100000011111111110000000011111100111111001111111000000000
00000011000000100000001111111011000000011111111111111010000001011111110100000000
00000000111111100000000111111100000000011111111011111111111111111111111100000000
11111111000000000000001111111011111111110000000100000001111111110000001100000000
11111100000000111111101000000000111111110000000011111011111111010000010000000000
11111101111111110000000011111110111111111111110011111101000001000000010000000000
11111010111110111111111011111001111110110000000100000010000000110000010100000000
00000011111111011111101100000010111111010000000000001001000001000000001100000000
00000000000000100000000100000001111111000000010011111101111111111111110100000000
00000010000000110000000000000001111111001111111000000001000000110000011000000000
00000001000000010000000111111101000000011111110000000101000000000000001111111010
11111101111111011111101100000100000000101111100000000100000000011111101100000000
11111110000000011111111011111010111111101111100100000110000000111111111100000000
11111100000000010000001100000001000000000000000000000101111111100000010000000000
00000001000000001111110100000000000000001111110011111111000000110000000100000000
11111111111111100000000000000100000000001111011111111100111110101111110000000000
00000011000001100000011000000110111111110000000000000101000000100000000100000000
11111111000000010000011100000011111111100000001000000100000000111111111100000000
00000011000001010000001100000000000000001111101000000101000000110000001100000000
11111001111110110000001111111100111111010000001111111101000001010000000000000000
00000000111111000000000011111111111111111111111000000111000000101111110100000000
00000001111111000000010111111110000000101111110100000001111111110000000100000000
11110110111111101111101111111110000000101111110111111010000000001111101000000000
00000000000000000000000111111101000000000000000011111100000001000000001100000000
11111111000000001111111100000010111111001111111111111100111111011111110100000000
00000100000000001111111000000000111111011111111100000101000000011111111000000000
00000001000000111111110011111111111110111111101100000010000010010000010000001000
11111111111111001111110000000000111111010000001111111111000000000000000100000000
11111100111111011111110000000000111111111111111111111111111111011111110100000000
11111100000000011111111000000011111111001111111000000011000000101111110000000000
11111110000000110000010000000001000000100000001100000011000001000000001100000000
11111101000000010000001111111110111111110000001100000000111111011111111100000000
11111110000000010000010011111110111111011111111011111101000000000000001000000000
11111110111111001111111000000010000000100000000011111101000000101111111100000000
11111100111111111111111111111111000000111111110100000001000000111111110100000000
11111110111111110000010000000100111111101111111000000001111111010000000100000000
00000000111111010000000011111101000000011111111100000001000000111111111100000000
11111111000000110000010000000001111111010000010000000011111111001111111000000000
11111101000000011111111011111110000000010000001000000010111111011111111000000000
11111111000000100000000100000011111111110000000011111111111111000000001000000000
11111111000001001111111111111101000000111111111111111100000001001111110100000000
00000001000001000000001111111101000000000000000000000100111111101111111000000000
11111100111111100000001011111110000000110000010011111100111111000000010011111111
00000010111111001111111000000100000001000000000011111111000000001111101100000000
00000000000000110000001011111111111111010000000011111100000000110000010000000000
11111110111111101111111011111101000001001111111111111101000001000000001000000000
00000011000000010000001100000001000000010000001011111100111111000000000100000000
11111001111110101111110111111101000000010000000111111111111111011111111100000000
00000000000000101111110011111101000001101111111111111011000000001111110100000000
11111100111110101111100100000001111110101111110011111110111110111111100000000000
00000001111111110000000100000111000000110000000100001000000010000000010000000000
11111111000000101111111111111110000000001111111100000110000000100000001000000000
00000101000000000000000000000100000000000000000100000000000000001111111100000000
00000011111111011111100111111110000000111111111011111100000000000000000100000000
00000111000010000000010000000011000001011111111111111110111110101111111000000000
00000110000001010000000000000000111111010000001011111110111111100000000100000000
00000011000000111111111000000000111111010000000011111110000000001111111000000000
00000000111111101111110111111110111111011111101111111011000000011111101100000000
00000011111111010000001100000001111111111111110000000010111111100000011011111111
11111100000000000000000100000000111111100000000000000001111111001111111100000000
00000100000001010000010011111011111110010000000011111101111111110000000100000000
11111100000000001111110000000010111111001111101111111100111110010000000100000000
11111100111111111111111000000010000000010000001111111100000000000000001000000000
11111010111111001111111000000011000000000000000000000010111110110000000000000000
11111100000000110000011011111111111111000000010011111101000000010000000100000000
00000001111111101111100100000111000001010000010011111110111111110000000000000000
00000001000000010000001011111011000000011111110111111111111110101111111100000000
00000101000000010000011011111011111111111111110011111101000000110000000100000000
00000001000000000000000000000101111111001111101100000110111111101111111000000000
11111111111111010000001100000011111111110000000000000010000000000000000000000000
00000100111111100000001100000100111111001111110100000101111111011111111100000000
00000110000010100000100111111011111111110000001000000100000001010000001000000000
11111110000000111111110100000001000001001111111011111111111111100000001000000000
11111100111111001111110000000000111111110000000111111111000000001111111100000000
00000010000001000000001100000010000000011111111100000101000001000000010111101110
11111111000001110000010000000100000000011111111111110111000000001111111100000000
00000101111111110000010000000001000000000000010011111100000000101111111000000000
00000011000001010000001100000101111111001111111000000001000000000000000000000000
11111101000000000000001000000100000001010000010000000011000000000000001000000000
11111110111111111111110100000100111111011111111011111101111111000000010000000000
00000001000000111111111000000000000000000000000011111110111111001111110100000000
00000101111111110000000000000011111111011111101000000011000000110000011100000000
00000000111111101111111100000010000000101111110111111110000001000000001000000000
00000000000000110000010011111111000001001111101100000110000000101111110100000000
11111110111111111111111100000011111111101111111100000010111110110000001100000000
11111110000000001111110000000001111111011111110100000000111111001111111000000000
00000011000000001111111000000011000001001111111111111110111111010000000100000000
11111010111111011111111000000001000000010000001011111100111111011111111000000000
00000011111111100000000100000100000000111111111100000100111111001111111100000000
11111110000000001111110111111110000000000000010000000001111111000000000100000000
00000010111110110000000111111101000000011111110011111111000000001111111000000000
00000010000000010000100111111111111111000000001011111011111110011111101100000000
11110111111110011111110100000011000001010000001011111101000001001111101100000000
00001001000001010000011100000101111111011111111011111101111111101111100100000000
00000011000001000000010011111101111111100000000111111111000000000000010000000000
00001000000000000000010000000000000001000000001111111011111110111111110100000000
11111100111111101111111100000010000000011111111011111001000000000000010100000000
00001010000000101111111011111101000000101111110111110101111111011111101000000000
00000001000000010000000100000000000000111111111111111101111111100000000100000000
11111111111111101111110000000100111111100000000011111111000001000000010000000000
11111111111111100000000111111101000000110000010100000000000001010000010000000000
00000000111111000000010000000000111111001111101011111111111111010000000000000000
11111111000000001111110000000010000000101111111011111100000001001111110100000000
11110110111111101111111000000010000001111111111000000011000010000000010100000000
00000010000000101111110100000100000000010000001100000000000000000000010000000000
00000100000000011111111100000011000000000000000111111100000000100000011000000000
11111110000000001111111011111110000000011111111000000000000001100000000000000010
11111110000000100000010111111101000000110000011011111010111111110000000100000000
00000110000010000000001100000000000000000000000100000001111111101111101100000000
11111010111111100000010011111101111111110000001111110111000000010000001100000000
00000001000000001111110011111111111111110000000100000011000000011111111000000000
00000000111111101111111000000001000000100000011000000000000001110000001100000000
11111101000000100000000100000101111111111111111000000000000000001111100100000000
11111011000000000000000011111110111111110000000100000000000000101111100100000000
00000000111111001111111111111110000000100000000100000100111111101111111100000000
00000010000000111111110100000101111111110000000100000101000000100000011000000000
11111110000000010000000011111101111111100000000000000000111111010000000100000000
00000001000001101111110111111111000000000000000000000011000000111111111000000000
00000011000000001111111000000101000001010000000011111001111110101111101100000000
00000011000000110000001011111110000000010000000000000100000000011111111000000000
11111111000000000000001111111101000001000000000000000011111111110000001000000000
00000100000000111111110111111100111111101111101000000011000000110000000000000000
00000000111111111111111000000011111110111111111111111110000000000000001011111101
11111111111111100000001000000001000000010000000011111100111110101111111000000000
00000011000000110000001011111101000000011111100011111011000000101111100100000000
11111110000001000000001100000100111111000000001100000001111110110000001100000000
11111100000000000000001111111101111111000000000100000010000001001111110100000000
11111011000000011111101100000001111110111111111011111110111111100000000100000000
11111100111111100000001000000001111110110000000011111111111111010000001000000000
11111101111111001111100111111111111111011111101111111010111110001111101100000000
00000000000000110000011111111100000000000000100000000101000001000000000000000000
00000010000000110000000011111011111111110000010011111011111111111111111100000000
00000100000000100000000100000000111111011111110000000001000000001111111100000000
00000110000000100000000000000011000000111111110011111101111111010000001000000000
00001000000001011111110000000001000001000000001011111100000001011111110000000000
00000011000001000000010100000000111111011111100100000101111111001111101100000000
00000011000001000000000011111101000000000000000100000000111111010000000100000000
00000010111111011111110111111111111111001111110011111101000000000000001000000000
00001000000000110000100011111111111111100000011011111111000000010000010100000100
11111101000000001111111011111100111110101111110100001001000000010000000100000000
00000000111111111111110011111100000000111111111000000100111111000000000000000000
11111110111111101111110100000001111111101111101000001000000001000000001100000000
11111011111111100000001000000000111111110000000111111110111110110000000100000000
00000000000001010000000100000110000001011111111000000011111111011111110000000000
11111111000000100000011011111110000000001111110011111110111111110000001100000000
00000000000000111111111100000011111111011111110100000000111111111111110000000000
00000011000000010000000111111101111111110000001100000010000000010000000100000000
11111101111110101111100000000010111110100000000111111110000000010000001000000000
00000100000000110000000100000101000001000000000000000001000010010000001100000000
11111100111111110000000111111010111111011111111100000101000000110000010100000000
00000001111110110000000011111110111110111111110000000000000010010000010000000000
11111110111111111111110000000101000000000000000100001000111111101111111100000000
11111111111111100000001100000010111111000000001011111011000000011111110000000000
00000011111111011111110011111110111111100000001100000011000001110000000000000000
11111100000000001111101000000001111111001111111000000010111111110000010100000101
00000000111101101111110100000001000000001111111100000011111110110000000000000000
11111101000000111111101100000000111111001111110100000100000001011111110100000000
11111101111111001111101000000011111111011111111000000110000000110000001100000000
11111101000001000000001111111011000000110000000000000000111111101111111100000000
00000000111111001111111000000001000001010000010011111111000001000000000100000000
00000001000000100000001011111011111110101111111111111100111110011111110000000000
00000010111111010000001011111100000000011111101011111100000000010000010100000000
00000111000001100000100000000011111110101111111100000010111111101111111000000000
11111111000000010000000000000110000001001111111000000111000001000000000100000000
00000010000000010000010000000000000001001111111100000110000000110000101000000000
00000000111111100000001100000010000000101111110111111110000000000000000000000000
11111100000000001111100111111011000000001111110011111100000010100000000100000000
00000000000000111111111111111101000000101111101100001001000001000000001100000000
00000001111111001111111011111110000000101111111100000001111111100000000100000000
11111110000000100000000011111101111111000000010111111110000000110000001000000000
00000100000000001111101111111100000000011111111000000001000001010000000100000110
00000101000001111111101000000101000001011111110100000010000001000000001100000000
00000010000001000000001000000100111111011111111000000000111111001111101000000000
11111110000000010000000000000010111111001111101000000101000000010000010100000000
00000010000000100000010011111110000000101111111011111100111111100000010000000000
00000001111111100000000111111101111111011111110000000011111111110000000000000000
00000100111111011111111000000001111111101111111000000001000001000000001000000000
00000001000001001111101100000001111111011111100100000011000000100000000100000000
11111101111111111111111100000110000000111111110100000101000001100000010000000000
00000001111111000000000000000011000000101111110000000000000001001111111100000000
00000000111111111111110111111011111111010000001100000011111111100000010100000000
11111110000000011111101111111011000001001111111100000101000000100000000100000000
00000000000000101111101000000010000001000000000111111110000000001111011100000000
11111111000000100000101000000000111111110000010111110111111101111111101100000000
11111101111111010000001100000000000001001111110000000100000001000000001100000000
00000011111111001111111000000001000000111111101111111011111111010000001000000000
00000100111111000000010100000010000000000000001000000010000000110000000111111010
00000010111111010000000000000000000000101111111100000011000000010000010000000000
00000011111111001111110100000001111111010000000000000001111111110000001000000000
00000001111111110000000100000011000000010000000111111111000000011111111100000000
00000001000001001111110111111110111111010000001000000011111111010000001000000000
00000010111111000000000011111100000000011111110011111100111111011111111000000000
00000010111111110000010011111111000001000000000011111101111111010000000000000000
00000001111111100000010011111111000000011111110000000010000001010000000100000000
11111110111111111111111100000001111111100000010000000001111111000000001000000000
11111101000000000000001111111110111111111111111111111111111111111111111100000000
11111110000000111111110100000001111111010000000011111100111111101111111000000000
11111100000000101111111100000100111111001111111111111100000000111111111000000000
00000011111111001111111100000010111111101111111000000001111111101111111000000000
00000000111111011111110111111100111111011111111100000101111111111111111000000000
00000010000001000000000011111101000001000000001111111100000000010000000000000000
11111111111111011111111000000010000000100000000100000001111111110000010000000000
11111100000001001111110000000010111111010000001011111011000000011111111011111111
00000111111111011111110000000100000000010000000111111110000001101111110000000000
11111111111111010000010011111111111111101111111100000010111111100000000000000000
00000010111111111111111111111010111111111111110011111000000000001111110000000000
00000001000000001111110100000001111111101111111000000100000000101111110100000000
11111101111111010000000100000011111111010000000000000010000000110000000000000000
11111101111111010000001011111101111111110000000100000000000001011111111100000000
11111100000001000000001011111010000000001111111111111101000000000000000100000000
11111101111111001111110011111111000000101111101000000010000000111111110100000000
00000001111111110000000100000001111111110000001011111110000000110000001100000000
00000000000000101111110111111100111111100000001011111101111111100000001100000000
11111100000000101111111111111100111111010000000000000100000001011111111100000000
11111101000000111111101100000001000000000000001000000001000000010000001000000000
11111110111111111111110100000010000001100000001000000001000001010000001100000000
11111110111111100000000000000010000000110000000111111111000000110000000100000000
00000011111111000000001000000100111111011111111000000100111111010000000100000000
11111011111111000000010111111111000000111111111000000011000001101111111011111001
11111101000000111111110111111110000000100000000011111111000000010000000000000000
11111111000000010000011011111111000000001111111000000011000000110000000100000000
11111110111111010000000100000000000000010000000011111100111111100000000000000000
00000001000000011111110100000011111111110000001011111110111111001111110100000000
11111110000000011111110011111100000000100000010011111100111111110000000100000000
00000011000001010000011111111011000000001111111011111100111111000000001000000000
00000111000001101111111111111001000000111111110100000100000010100000011000000000
11111101000000001111101011111100111111100000001100000001000000000000001000000000
11111111000000001111110100000101111111111111111111111111000000011111110100000000
00000100111111011111111100000000000000101111110111111111111111011111101000000000
11111110000000010000001100000011111111010000001100000100000000000000000000000000
00000100111111101111110100000000000000101111110111110111000001001111111100000000
11111101111111100000001100000101111110110000000100000011111111011111111000000000
11111110000000110000000111111100111111111111111100000011111111000000001100000000
11111100000001000000000000000011000000011111110111111011111111001111111100000000
00000001000001000000000000000010000000111111111000000011111111001111111100000010
00000000111111101111111011111111111111011111110000000000000000101111111000000000
00000000000000010000001000000010111111011111110100000111000001010000010100000000
11111101000000111111101100000001000000101111110011111000111111011111100100000000
11111111000000001111111000000011000000101111110000000001111111011111110000000000
00000010111111010000001011111011000000011111111011111010111111111111101100000000
11111111000000100000001111111101111111011111111100000011000001100000001100000000
11111101111111010000000100000100111111101111110100000000000000010000000000000000
00000101000000010000010011111101000001010000000000000000111111100000001100000000
00000100000001011111111100000100111110111111111111111101111111110000000100000000
00000100111111111111110000000110111111100000000000001001000001000000011000000000
00000000111110110000000100000010111110100000000100001000000010010000000000000000
11111110000000000000000100000101111111001111011100001010000001000000010000000000
11111110000000101111111111111101000000011111101100000101000001101111101000000000
00000010111111011111110011111111111111011111110100000000000000001111111100000000
11111111111110110000001000000100000000110000001100001001000001010000010100000000
00000001000000010000010100000110111111100000000100000100000000010000000000000100
00000011000000100000011000000001111111010000001111111111111111101111101100000000
00000001000000010000000100000001000001000000000111111101111111101111111000000000
00000100000000010000010100000001000000011111110111111010111111011111110000000000
11111111111111111111110011111101000000000000001011111110111111101111110100000000
11111101000000000000000100000000000000101111110100000011000000011111111100000000
00000010000000100000001100000101000001010000001000000010111111110000001000000000
11111101000000010000100011111111111111101111101100000010000000011111101100000000
11111111111111010000000011111100111111101111111000000000111110111111111000000000
00000101000001000000000111111111000000100000000000000010111111110000001100000000
11111110000000000000001100000000000000010000000000000001111111010000001000000000
11111111000000011111111111111101000001010000000000000001111111110000010000000000
00000001000000100000011011111110000000010000001011111111111110111111110100000000
00000001111111111111110000000001111111100000000111111100000000101111101100000000
00000001111111000000000000000100000000011111110011111101000000000000000000000000
11111100000000111111111000000000000000000000000100000011000000100000010100000000
11111011000000101111111000000001000000110000001111111110000000010000000011111111
11110100111110011111011011111011111110011111101011111101111110111111011100000000
00000010111110111111110011111111000000011111111000001001000001100000000000000000
00000010111111001111111011111111000000101111110100001000000001010000000100000000
00000010000000111111111011111100111111111111110011111101000000010000000000000000
00000011111110101111101111111100111111101111101111111100111110110000000100000000
00000010000000000000000011111011111111011111110011111111111111001111110100000000
00000010000000000000000100000000000000011111111000000010000001100000010100000000
00000100000000000000011111111101111111100000001100000000000000110000000000000000
11111001000000011111101100000001000001001111101100000011111111111111110100000000
11111110000000001111111000000000111111010000000111111011111110111111110000000000
11111111111111110000001011111010111110111111111011111100111111111111100100000000
11111000111101101111011011111101111111011111100100000000111110001111101000000000
11111101111111011111110000000000000000000000000100000010000010000000000100000000
11111100111111010000000000000010000000110000001000000001111111110000001100000000
11111011000000111111111100000010111111000000000111111101000001000000000100000000
11111101111111101111111111111100000000001111111000000111000000101111110100011101
00000000111111001111111000000010000000000000010011111110000001010000010000000000
00000101000001010000000000000100111110110000001000000010111111001111110000000000
11111100000001010000010011111101000001100000001011111100000000101111011100000000
11111111000000100000000000000100000000100000001100000100000000000000000000000000
11111011000000010000000100000000000001010000000000000101000000000000001100000000
00000101111111101111111100000110000001001111101000001000000000111111111000000000
11111110111111011111111011111100111111101111111100000000111111001111100100000000
00000011000000010000000111111111111111100000000000000001000001000000000100000000
11111110000001001111111011111111000000101111110011111100000001000000001000000000
11111101000000001111111011111110000001001111111100000101000000100000001000000000
11111110111111001111110100000100000000110000001000000010000000111111101000000000
11111111111111110000000111111100111111110000010100000001000000110000011100000000
11111111000000111111101000000000111111001111101000000010000000001111010100000000
00000000000000011111110000000000111111000000000100000001000000010000000100000000
00000010000000110000001000000010111111101111111111111111000000011111111100000000
11111011000000111111110111111011000000101111110011111111111111010000000100000101
11111011111111110000001011111010111110010000000111111010111101011111111000000000
00000100111111101111111000000000111111011111110111111100111111100000001100000000
11111110000000101111101100000011000000010000001011111111000001010000010100000000
11111110000000110000000100000001111111110000010100000010000000010000010000000000
11111101000000100000011000000010000001010000001100000000000000100000000100000000
00000011111111111111101100000001000000001111111011111010111110111111110100000000
00000001000000100000001100000100000001101111111100000000000000111111111000000000
11111001000000011111101111111100111111101111110111111010111111010000001100000000
11111101111110111111110100000100000000001111111100000010000001010000011000000000
00000011111110111111111111111110000000101111110111111101111111100000000000000000
11111111111111110000000000000101000000001111110100000011111111110000001100000000
00001101111111100000000100000000000001110000000011110100000000001111110000000000
11111110111110101111101111111100111111011111101000000010111111010000000000000000
11111110111111011111110100000000111111101111110100000000111111100000000100000000
00000000111111010000001000000010000000110000001100000001111111110000000000000000
00000011000000011111101011111001000000101111111111111011000000001111111111111010
00000111000000001111111111111011111111101111100111111100111110101111100100000000
00000011000000101111101000000001000000100000010011111010000000010000000100000000
00001000111111000000000011110111111111001111101111110100111110101111111000000000
11111011111111011111111011111010111111001111101100000001000000001111110100000000
11111110000000000000001011111101111110010000000011111100000000111111111000000000
11111111000001001111110011111100111111101111111111111000000000100000001100000000
00000010111111100000001111110110111110011111110011111001111110000000010000000000
00000100000001100000011000000001111111110000001100000111000001100000011000000000
11111111000001111111110000000100111111111111101011111110000000011111110100000000
00000011000001010000010000000101111111010000100000001100000001010000100100000000
00000000000001111111110111111111000000100000001111111110000001000000001000000000
11111110000010101111100000000000111111111111101000000101111111110000000000000000
00000101000000101111110100000101000001000000010000000000000000001111111100000000
00000001000000111111111000000100000000010000001111111100000000010000001000000000
11111111000000100000000011111111111111011111111100000001000000011111111100000000
00000101000001000000010000000110111110101111111100001010000000110000000000001100
00000001111111111111111100000000111111000000010011111111111111110000010000000000
11111110111111100000000000000000111111101111111011111011111111100000001000000000
11111111111111111111110100000000000000100000010011111100111111000000010000000000
00000100111111101111111100000001111111111111111111111101000000100000010000000000
11111111000000011111110100000001000000011111111100000010000000000000000100000000
00000100000000111111111111111111111110101111110100000010000000011111101100000000
00000110111111101111110111111110000001010000011000000001111111100000001000000000
11111110000001000000010011111000111111001111110111111010111110110000001100000000
11111100111111110000011011111111111111100000010000000010111111010000001100000000
00000001111111111111110111111110111111000000000100000000111110110000001100000000
00000011111111100000001000000000000000011111101100000001111111001111110100000000
11111111111111100000000011111001111110101111110100000001000000010000010100000000
00000011000001110000011011111111000001001111110111111110000001100000001000000000
00000000000000000000000111111100111111001111110000000001000000010000001100000000
11111111111111111111110000000011111111001111110011111101000000011111111000000000
00000101000001000000001111111110000000000000001000000001000000101111111011110011
11111100111111100000000111111101000000110000001011111100111111011111111000000000
00000010000000011111111111111010000000011111111000000001000000001111111000000000
11111110111111111111111100000011000000010000000100000010000001010000100000000000
00000000000000110000010000000000000000000000001011111110000000110000001100000000
11111111111111100000000111111110111111101111110100000001111110111111101000000000
11111110000000001111111100000011000000110000000011111111111111100000000100000000
11111010111111011111101111111110111110111111110011110111111110011111110100000000
00000010111111100000010100000010000000101111110100000000111111000000001000000000
00000101000000010000100011111100111111000000000100000000000000011111111000000000
00000100000000100000011011111111111111010000000000000100000000011111111100000000
00000000000001000000001000000100000000111111110100000100111111100000000100000000
00000011111111110000001011111110000000011111111011111001111111010000000000000000
00001001000010010000000111111001111111010000010111111011111110100000011000000000
00000010111111100000010000000011000000100000000100000001000000001111111000000000
11111100111111101111111100000000111111000000001000000001111111111111110100000000
00000011000001100000010000000010000000000000001011111101111111101111111100000001
