00011011
11101111
00000000
11111111
00000011
11111101
00001010
00100001
00000110
00001100
00101011
00000000
11111101
00000000
11111010
00000001
00011111
00000010
11110000
11111111
11110000
11111111
11111101
11111101
00101010
11110001
00011111
11111111
00001011
00011111
11101011
00001111
11111001
00100001
11111101
00000000
00100100
00000000
11111100
00101010
11111010
11111111
00011010
00000000
00000001
00000000
00100011
00011111
00000000
00000111
00001000
00011000
11111110
11110000
00001000
00000111
00000101
00010100
00010001
00100001
00000100
00101001
00110000
11111001
