00100100
00011000
00000001
00000100
11111000
11110101
00100000
01001000
11111010
11111101
01000000
00000000
11110111
11111111
11110100
11110110
01001001
11111101
00001111
00000000
00001110
11111111
11101110
00010001
01000001
00001111
00101100
11111111
11110111
00111100
00010110
00000011
11110011
00110000
00000110
00000000
01011101
00000000
11111100
00110100
11110110
11110010
00011111
00000010
11111011
11111111
00110010
01010100
00000000
11110110
11111000
00011110
11110011
00010000
11111110
11110111
11111011
00000010
00101111
01000011
11111010
01000101
01001100
00001011
11100100
11101010
00000001
11111110
00000111
00110010
11110111
11101001
00011110
00011011
11100100
00000001
00110100
00000000
00111010
00010100
11101000
00001110
11100000
11111110
11100100
11111111
01000000
11111011
11100110
11100101
11100110
11111110
00100100
11101100
11100011
00011010
00111111
11100100
11111101
11111110
11101001
00000000
11110010
11011111
00111010
00100001
11100101
11111111
00000100
11111111
11100110
11101000
11111111
00011011
00101010
11101001
00110111
11011111
00010111
00100100
00001010
00100101
11101111
11101010
00100111
11101100
11100111
11110110
